#include "model_data.h"

alignas(16) const unsigned char g_vlp_model_data[] = {
  0x1c, 0x00, 0x00, 0x00, 0x54, 0x46, 0x4c, 0x33, 0x14, 0x00, 0x20, 0x00,
  0x04, 0x00, 0x08, 0x00, 0x0c, 0x00, 0x10, 0x00, 0x14, 0x00, 0x00, 0x00,
  0x18, 0x00, 0x1c, 0x00, 0x14, 0x00, 0x00, 0x00, 0x03, 0x00, 0x00, 0x00,
  0x5c, 0x00, 0x00, 0x00, 0x50, 0x00, 0x00, 0x00, 0x6c, 0x01, 0x00, 0x00,
  0x0c, 0x00, 0x00, 0x00, 0xd8, 0x00, 0x00, 0x00, 0x54, 0x00, 0x00, 0x00,
  0x0e, 0x00, 0x00, 0x00, 0xc0, 0x21, 0x00, 0x00, 0xbc, 0x21, 0x00, 0x00,
  0x44, 0x21, 0x00, 0x00, 0x08, 0x20, 0x00, 0x00, 0x58, 0x1e, 0x00, 0x00,
  0xa4, 0x0d, 0x00, 0x00, 0x70, 0x08, 0x00, 0x00, 0x3c, 0x07, 0x00, 0x00,
  0xa0, 0x21, 0x00, 0x00, 0x9c, 0x21, 0x00, 0x00, 0x98, 0x21, 0x00, 0x00,
  0x94, 0x21, 0x00, 0x00, 0x0c, 0x01, 0x00, 0x00, 0xcc, 0x00, 0x00, 0x00,
  0x01, 0x00, 0x00, 0x00, 0x40, 0x01, 0x00, 0x00, 0x02, 0x00, 0x00, 0x00,
  0x4c, 0x05, 0x00, 0x00, 0xd8, 0x01, 0x00, 0x00, 0x01, 0x00, 0x00, 0x00,
  0x10, 0x00, 0x00, 0x00, 0x00, 0x00, 0x0a, 0x00, 0x10, 0x00, 0x0c, 0x00,
  0x08, 0x00, 0x04, 0x00, 0x0a, 0x00, 0x00, 0x00, 0x0c, 0x00, 0x00, 0x00,
  0x1c, 0x00, 0x00, 0x00, 0x20, 0x00, 0x00, 0x00, 0x0f, 0x00, 0x00, 0x00,
  0x73, 0x65, 0x72, 0x76, 0x69, 0x6e, 0x67, 0x5f, 0x64, 0x65, 0x66, 0x61,
  0x75, 0x6c, 0x74, 0x00, 0x01, 0x00, 0x00, 0x00, 0x14, 0x00, 0x00, 0x00,
  0x01, 0x00, 0x00, 0x00, 0x28, 0x00, 0x00, 0x00, 0x08, 0x00, 0x0c, 0x00,
  0x08, 0x00, 0x04, 0x00, 0x08, 0x00, 0x00, 0x00, 0x0a, 0x00, 0x00, 0x00,
  0x04, 0x00, 0x00, 0x00, 0x08, 0x00, 0x00, 0x00, 0x6f, 0x75, 0x74, 0x70,
  0x75, 0x74, 0x5f, 0x30, 0x00, 0x00, 0x00, 0x00, 0x72, 0xdf, 0xff, 0xff,
  0x04, 0x00, 0x00, 0x00, 0x06, 0x00, 0x00, 0x00, 0x61, 0x72, 0x67, 0x73,
  0x5f, 0x30, 0x00, 0x00, 0x02, 0x00, 0x00, 0x00, 0x48, 0x00, 0x00, 0x00,
  0x04, 0x00, 0x00, 0x00, 0xc8, 0xff, 0xff, 0xff, 0x08, 0x00, 0x00, 0x00,
  0x0d, 0x00, 0x00, 0x00, 0x17, 0x00, 0x00, 0x00, 0x6b, 0x65, 0x65, 0x70,
  0x5f, 0x73, 0x74, 0x61, 0x62, 0x6c, 0x65, 0x68, 0x6c, 0x6f, 0x5f, 0x63,
  0x6f, 0x6e, 0x73, 0x74, 0x61, 0x6e, 0x74, 0x00, 0xba, 0xdf, 0xff, 0xff,
  0x04, 0x00, 0x00, 0x00, 0x04, 0x00, 0x00, 0x00, 0x74, 0x72, 0x75, 0x65,
  0x08, 0x00, 0x0c, 0x00, 0x04, 0x00, 0x08, 0x00, 0x08, 0x00, 0x00, 0x00,
  0x08, 0x00, 0x00, 0x00, 0x0c, 0x00, 0x00, 0x00, 0x13, 0x00, 0x00, 0x00,
  0x6d, 0x69, 0x6e, 0x5f, 0x72, 0x75, 0x6e, 0x74, 0x69, 0x6d, 0x65, 0x5f,
  0x76, 0x65, 0x72, 0x73, 0x69, 0x6f, 0x6e, 0x00, 0xf6, 0xdf, 0xff, 0xff,
  0x04, 0x00, 0x00, 0x00, 0x10, 0x00, 0x00, 0x00, 0x32, 0x2e, 0x30, 0x2e,
  0x30, 0x00, 0x00, 0x00, 0x00, 0x00, 0x00, 0x00, 0x00, 0x00, 0x00, 0x00,
  0x0f, 0x00, 0x00, 0x00, 0x4d, 0x4c, 0x49, 0x52, 0x20, 0x43, 0x6f, 0x6e,
  0x76, 0x65, 0x72, 0x74, 0x65, 0x64, 0x2e, 0x00, 0x00, 0x00, 0x0e, 0x00,
  0x18, 0x00, 0x04, 0x00, 0x08, 0x00, 0x0c, 0x00, 0x10, 0x00, 0x14, 0x00,
  0x0e, 0x00, 0x00, 0x00, 0x44, 0x00, 0x00, 0x00, 0x38, 0x00, 0x00, 0x00,
  0x2c, 0x00, 0x00, 0x00, 0x14, 0x00, 0x00, 0x00, 0x04, 0x00, 0x00, 0x00,
  0x04, 0x00, 0x00, 0x00, 0x6d, 0x61, 0x69, 0x6e, 0x00, 0x00, 0x00, 0x00,
  0x04, 0x00, 0x00, 0x00, 0xa0, 0x03, 0x00, 0x00, 0xc8, 0x01, 0x00, 0x00,
  0xd0, 0x00, 0x00, 0x00, 0x50, 0x00, 0x00, 0x00, 0x01, 0x00, 0x00, 0x00,
  0x0a, 0x00, 0x00, 0x00, 0x01, 0x00, 0x00, 0x00, 0x00, 0x00, 0x00, 0x00,
  0x0b, 0x00, 0x00, 0x00, 0xb0, 0x1f, 0x00, 0x00, 0xd4, 0x1e, 0x00, 0x00,
  0xa4, 0x1d, 0x00, 0x00, 0xf0, 0x1b, 0x00, 0x00, 0x3c, 0x0b, 0x00, 0x00,
  0x08, 0x06, 0x00, 0x00, 0xd8, 0x04, 0x00, 0x00, 0xbc, 0x03, 0x00, 0x00,
  0xbc, 0x01, 0x00, 0x00, 0xd0, 0x00, 0x00, 0x00, 0x40, 0x00, 0x00, 0x00,
  0x00, 0x00, 0x0a, 0x00, 0x10, 0x00, 0x04, 0x00, 0x08, 0x00, 0x0c, 0x00,
  0x0a, 0x00, 0x00, 0x00, 0x01, 0x00, 0x00, 0x00, 0x10, 0x00, 0x00, 0x00,
  0x04, 0x00, 0x00, 0x00, 0x01, 0x00, 0x00, 0x00, 0x0a, 0x00, 0x00, 0x00,
  0x01, 0x00, 0x00, 0x00, 0x09, 0x00, 0x00, 0x00, 0x9c, 0xfc, 0xff, 0xff,
  0x0e, 0x00, 0x00, 0x00, 0x00, 0x00, 0x00, 0x0e, 0x01, 0x00, 0x00, 0x00,
  0xce, 0xe0, 0xff, 0xff, 0x00, 0x00, 0x00, 0x01, 0x34, 0x00, 0x00, 0x00,
  0x0b, 0x00, 0x00, 0x00, 0x08, 0x00, 0x00, 0x00, 0x34, 0x00, 0x00, 0x00,
  0x1f, 0x00, 0x00, 0x00, 0x73, 0x65, 0x72, 0x76, 0x69, 0x6e, 0x67, 0x5f,
  0x64, 0x65, 0x66, 0x61, 0x75, 0x6c, 0x74, 0x5f, 0x6f, 0x75, 0x74, 0x70,
  0x75, 0x74, 0x5f, 0x30, 0x5f, 0x6f, 0x75, 0x74, 0x70, 0x75, 0x74, 0x00,
  0x02, 0x00, 0x00, 0x00, 0x01, 0x00, 0x00, 0x00, 0x02, 0x00, 0x00, 0x00,
  0xbc, 0xe0, 0xff, 0xff, 0x46, 0xfd, 0xff, 0xff, 0x00, 0x00, 0x00, 0x08,
  0x28, 0x00, 0x00, 0x00, 0x1c, 0x00, 0x00, 0x00, 0x10, 0x00, 0x00, 0x00,
  0x00, 0x00, 0x0a, 0x00, 0x08, 0x00, 0x00, 0x00, 0x00, 0x00, 0x07, 0x00,
  0x0a, 0x00, 0x00, 0x00, 0x00, 0x00, 0x00, 0x01, 0x01, 0x00, 0x00, 0x00,
  0x09, 0x00, 0x00, 0x00, 0x03, 0x00, 0x00, 0x00, 0x08, 0x00, 0x00, 0x00,
  0x03, 0x00, 0x00, 0x00, 0x01, 0x00, 0x00, 0x00, 0x5a, 0xe1, 0xff, 0xff,
  0x00, 0x00, 0x00, 0x01, 0x8c, 0x00, 0x00, 0x00, 0x0a, 0x00, 0x00, 0x00,
  0x08, 0x00, 0x00, 0x00, 0x8c, 0x00, 0x00, 0x00, 0x75, 0x00, 0x00, 0x00,
  0x76, 0x6c, 0x70, 0x5f, 0x68, 0x61, 0x63, 0x6b, 0x61, 0x74, 0x68, 0x6f,
  0x6e, 0x2e, 0x62, 0x61, 0x73, 0x65, 0x6c, 0x69, 0x6e, 0x65, 0x5f, 0x6d,
  0x6f, 0x64, 0x65, 0x6c, 0x2e, 0x42, 0x61, 0x73, 0x65, 0x6c, 0x69, 0x6e,
  0x65, 0x4d, 0x4c, 0x50, 0x2f, 0x74, 0x6f, 0x72, 0x63, 0x68, 0x2e, 0x6e,
  0x6e, 0x2e, 0x6d, 0x6f, 0x64, 0x75, 0x6c, 0x65, 0x73, 0x2e, 0x63, 0x6f,
  0x6e, 0x74, 0x61, 0x69, 0x6e, 0x65, 0x72, 0x2e, 0x53, 0x65, 0x71, 0x75,
  0x65, 0x6e, 0x74, 0x69, 0x61, 0x6c, 0x5f, 0x6e, 0x65, 0x74, 0x2f, 0x74,
  0x6f, 0x72, 0x63, 0x68, 0x2e, 0x6e, 0x6e, 0x2e, 0x6d, 0x6f, 0x64, 0x75,
  0x6c, 0x65, 0x73, 0x2e, 0x6c, 0x69, 0x6e, 0x65, 0x61, 0x72, 0x2e, 0x4c,
  0x69, 0x6e, 0x65, 0x61, 0x72, 0x5f, 0x34, 0x3b, 0x32, 0x00, 0x00, 0x00,
  0x02, 0x00, 0x00, 0x00, 0x01, 0x00, 0x00, 0x00, 0x02, 0x00, 0x00, 0x00,
  0x20, 0xe2, 0xff, 0xff, 0x00, 0x00, 0x0e, 0x00, 0x14, 0x00, 0x00, 0x00,
  0x08, 0x00, 0x0c, 0x00, 0x07, 0x00, 0x10, 0x00, 0x0e, 0x00, 0x00, 0x00,
  0x00, 0x00, 0x00, 0x08, 0x1c, 0x00, 0x00, 0x00, 0x10, 0x00, 0x00, 0x00,
  0x04, 0x00, 0x00, 0x00, 0x2a, 0xfe, 0xff, 0xff, 0x00, 0x00, 0x01, 0x01,
  0x01, 0x00, 0x00, 0x00, 0x08, 0x00, 0x00, 0x00, 0x03, 0x00, 0x00, 0x00,
  0x07, 0x00, 0x00, 0x00, 0x04, 0x00, 0x00, 0x00, 0x02, 0x00, 0x00, 0x00,
  0x42, 0xe2, 0xff, 0xff, 0x00, 0x00, 0x00, 0x01, 0x78, 0x01, 0x00, 0x00,
  0x09, 0x00, 0x00, 0x00, 0x08, 0x00, 0x00, 0x00, 0x78, 0x01, 0x00, 0x00,
  0x62, 0x01, 0x00, 0x00, 0x76, 0x6c, 0x70, 0x5f, 0x68, 0x61, 0x63, 0x6b,
  0x61, 0x74, 0x68, 0x6f, 0x6e, 0x2e, 0x62, 0x61, 0x73, 0x65, 0x6c, 0x69,
  0x6e, 0x65, 0x5f, 0x6d, 0x6f, 0x64, 0x65, 0x6c, 0x2e, 0x42, 0x61, 0x73,
  0x65, 0x6c, 0x69, 0x6e, 0x65, 0x4d, 0x4c, 0x50, 0x2f, 0x74, 0x6f, 0x72,
  0x63, 0x68, 0x2e, 0x6e, 0x6e, 0x2e, 0x6d, 0x6f, 0x64, 0x75, 0x6c, 0x65,
  0x73, 0x2e, 0x63, 0x6f, 0x6e, 0x74, 0x61, 0x69, 0x6e, 0x65, 0x72, 0x2e,
  0x53, 0x65, 0x71, 0x75, 0x65, 0x6e, 0x74, 0x69, 0x61, 0x6c, 0x5f, 0x6e,
  0x65, 0x74, 0x2f, 0x74, 0x6f, 0x72, 0x63, 0x68, 0x2e, 0x6e, 0x6e, 0x2e,
  0x6d, 0x6f, 0x64, 0x75, 0x6c, 0x65, 0x73, 0x2e, 0x6c, 0x69, 0x6e, 0x65,
  0x61, 0x72, 0x2e, 0x4c, 0x69, 0x6e, 0x65, 0x61, 0x72, 0x5f, 0x32, 0x3b,
  0x3b, 0x76, 0x6c, 0x70, 0x5f, 0x68, 0x61, 0x63, 0x6b, 0x61, 0x74, 0x68,
  0x6f, 0x6e, 0x2e, 0x62, 0x61, 0x73, 0x65, 0x6c, 0x69, 0x6e, 0x65, 0x5f,
  0x6d, 0x6f, 0x64, 0x65, 0x6c, 0x2e, 0x42, 0x61, 0x73, 0x65, 0x6c, 0x69,
  0x6e, 0x65, 0x4d, 0x4c, 0x50, 0x2f, 0x74, 0x6f, 0x72, 0x63, 0x68, 0x2e,
  0x6e, 0x6e, 0x2e, 0x6d, 0x6f, 0x64, 0x75, 0x6c, 0x65, 0x73, 0x2e, 0x63,
  0x6f, 0x6e, 0x74, 0x61, 0x69, 0x6e, 0x65, 0x72, 0x2e, 0x53, 0x65, 0x71,
  0x75, 0x65, 0x6e, 0x74, 0x69, 0x61, 0x6c, 0x5f, 0x6e, 0x65, 0x74, 0x2f,
  0x74, 0x6f, 0x72, 0x63, 0x68, 0x2e, 0x6e, 0x6e, 0x2e, 0x6d, 0x6f, 0x64,
  0x75, 0x6c, 0x65, 0x73, 0x2e, 0x61, 0x63, 0x74, 0x69, 0x76, 0x61, 0x74,
  0x69, 0x6f, 0x6e, 0x2e, 0x52, 0x65, 0x4c, 0x55, 0x5f, 0x33, 0x3b, 0x3b,
  0x76, 0x6c, 0x70, 0x5f, 0x68, 0x61, 0x63, 0x6b, 0x61, 0x74, 0x68, 0x6f,
  0x6e, 0x2e, 0x62, 0x61, 0x73, 0x65, 0x6c, 0x69, 0x6e, 0x65, 0x5f, 0x6d,
  0x6f, 0x64, 0x65, 0x6c, 0x2e, 0x42, 0x61, 0x73, 0x65, 0x6c, 0x69, 0x6e,
  0x65, 0x4d, 0x4c, 0x50, 0x2f, 0x74, 0x6f, 0x72, 0x63, 0x68, 0x2e, 0x6e,
  0x6e, 0x2e, 0x6d, 0x6f, 0x64, 0x75, 0x6c, 0x65, 0x73, 0x2e, 0x63, 0x6f,
  0x6e, 0x74, 0x61, 0x69, 0x6e, 0x65, 0x72, 0x2e, 0x53, 0x65, 0x71, 0x75,
  0x65, 0x6e, 0x74, 0x69, 0x61, 0x6c, 0x5f, 0x6e, 0x65, 0x74, 0x2f, 0x74,
  0x6f, 0x72, 0x63, 0x68, 0x2e, 0x6e, 0x6e, 0x2e, 0x6d, 0x6f, 0x64, 0x75,
  0x6c, 0x65, 0x73, 0x2e, 0x61, 0x63, 0x74, 0x69, 0x76, 0x61, 0x74, 0x69,
  0x6f, 0x6e, 0x2e, 0x52, 0x65, 0x4c, 0x55, 0x5f, 0x31, 0x3b, 0x00, 0x00,
  0x02, 0x00, 0x00, 0x00, 0x01, 0x00, 0x00, 0x00, 0x20, 0x00, 0x00, 0x00,
  0xf4, 0xe3, 0xff, 0xff, 0x00, 0x00, 0x0e, 0x00, 0x16, 0x00, 0x00, 0x00,
  0x08, 0x00, 0x0c, 0x00, 0x07, 0x00, 0x10, 0x00, 0x0e, 0x00, 0x00, 0x00,
  0x00, 0x00, 0x00, 0x08, 0x28, 0x00, 0x00, 0x00, 0x1c, 0x00, 0x00, 0x00,
  0x10, 0x00, 0x00, 0x00, 0x00, 0x00, 0x0a, 0x00, 0x08, 0x00, 0x07, 0x00,
  0x00, 0x00, 0x06, 0x00, 0x0a, 0x00, 0x00, 0x00, 0x00, 0x00, 0x01, 0x01,
  0x01, 0x00, 0x00, 0x00, 0x07, 0x00, 0x00, 0x00, 0x03, 0x00, 0x00, 0x00,
  0x00, 0x00, 0x00, 0x00, 0x05, 0x00, 0x00, 0x00, 0x06, 0x00, 0x00, 0x00,
  0x0c, 0x00, 0x10, 0x00, 0x0b, 0x00, 0x00, 0x00, 0x0c, 0x00, 0x04, 0x00,
  0x0c, 0x00, 0x00, 0x00, 0x09, 0x00, 0x00, 0x00, 0x00, 0x00, 0x00, 0x09,
  0x05, 0x00, 0x00, 0x00, 0x3e, 0xe4, 0xff, 0xff, 0x00, 0x00, 0x00, 0x01,
  0x00, 0x01, 0x00, 0x00, 0x08, 0x00, 0x00, 0x00, 0x08, 0x00, 0x00, 0x00,
  0x00, 0x01, 0x00, 0x00, 0xeb, 0x00, 0x00, 0x00, 0x76, 0x6c, 0x70, 0x5f,
  0x68, 0x61, 0x63, 0x6b, 0x61, 0x74, 0x68, 0x6f, 0x6e, 0x2e, 0x62, 0x61,
  0x73, 0x65, 0x6c, 0x69, 0x6e, 0x65, 0x5f, 0x6d, 0x6f, 0x64, 0x65, 0x6c,
  0x2e, 0x42, 0x61, 0x73, 0x65, 0x6c, 0x69, 0x6e, 0x65, 0x4d, 0x4c, 0x50,
  0x2f, 0x74, 0x6f, 0x72, 0x63, 0x68, 0x2e, 0x6e, 0x6e, 0x2e, 0x6d, 0x6f,
  0x64, 0x75, 0x6c, 0x65, 0x73, 0x2e, 0x63, 0x6f, 0x6e, 0x74, 0x61, 0x69,
  0x6e, 0x65, 0x72, 0x2e, 0x53, 0x65, 0x71, 0x75, 0x65, 0x6e, 0x74, 0x69,
  0x61, 0x6c, 0x5f, 0x6e, 0x65, 0x74, 0x2f, 0x74, 0x6f, 0x72, 0x63, 0x68,
  0x2e, 0x6e, 0x6e, 0x2e, 0x6d, 0x6f, 0x64, 0x75, 0x6c, 0x65, 0x73, 0x2e,
  0x6c, 0x69, 0x6e, 0x65, 0x61, 0x72, 0x2e, 0x4c, 0x69, 0x6e, 0x65, 0x61,
  0x72, 0x5f, 0x30, 0x3b, 0x3b, 0x76, 0x6c, 0x70, 0x5f, 0x68, 0x61, 0x63,
  0x6b, 0x61, 0x74, 0x68, 0x6f, 0x6e, 0x2e, 0x62, 0x61, 0x73, 0x65, 0x6c,
  0x69, 0x6e, 0x65, 0x5f, 0x6d, 0x6f, 0x64, 0x65, 0x6c, 0x2e, 0x42, 0x61,
  0x73, 0x65, 0x6c, 0x69, 0x6e, 0x65, 0x4d, 0x4c, 0x50, 0x2f, 0x74, 0x6f,
  0x72, 0x63, 0x68, 0x2e, 0x6e, 0x6e, 0x2e, 0x6d, 0x6f, 0x64, 0x75, 0x6c,
  0x65, 0x73, 0x2e, 0x63, 0x6f, 0x6e, 0x74, 0x61, 0x69, 0x6e, 0x65, 0x72,
  0x2e, 0x53, 0x65, 0x71, 0x75, 0x65, 0x6e, 0x74, 0x69, 0x61, 0x6c, 0x5f,
  0x6e, 0x65, 0x74, 0x2f, 0x74, 0x6f, 0x72, 0x63, 0x68, 0x2e, 0x6e, 0x6e,
  0x2e, 0x6d, 0x6f, 0x64, 0x75, 0x6c, 0x65, 0x73, 0x2e, 0x61, 0x63, 0x74,
  0x69, 0x76, 0x61, 0x74, 0x69, 0x6f, 0x6e, 0x2e, 0x52, 0x65, 0x4c, 0x55,
  0x5f, 0x31, 0x3b, 0x00, 0x02, 0x00, 0x00, 0x00, 0x01, 0x00, 0x00, 0x00,
  0x20, 0x00, 0x00, 0x00, 0xf8, 0xe4, 0xff, 0xff, 0x56, 0xe5, 0xff, 0xff,
  0x00, 0x00, 0x00, 0x01, 0x8c, 0x00, 0x00, 0x00, 0x07, 0x00, 0x00, 0x00,
  0x08, 0x00, 0x00, 0x00, 0x88, 0x00, 0x00, 0x00, 0x75, 0x00, 0x00, 0x00,
  0x76, 0x6c, 0x70, 0x5f, 0x68, 0x61, 0x63, 0x6b, 0x61, 0x74, 0x68, 0x6f,
  0x6e, 0x2e, 0x62, 0x61, 0x73, 0x65, 0x6c, 0x69, 0x6e, 0x65, 0x5f, 0x6d,
  0x6f, 0x64, 0x65, 0x6c, 0x2e, 0x42, 0x61, 0x73, 0x65, 0x6c, 0x69, 0x6e,
  0x65, 0x4d, 0x4c, 0x50, 0x2f, 0x74, 0x6f, 0x72, 0x63, 0x68, 0x2e, 0x6e,
  0x6e, 0x2e, 0x6d, 0x6f, 0x64, 0x75, 0x6c, 0x65, 0x73, 0x2e, 0x63, 0x6f,
  0x6e, 0x74, 0x61, 0x69, 0x6e, 0x65, 0x72, 0x2e, 0x53, 0x65, 0x71, 0x75,
  0x65, 0x6e, 0x74, 0x69, 0x61, 0x6c, 0x5f, 0x6e, 0x65, 0x74, 0x2f, 0x74,
  0x6f, 0x72, 0x63, 0x68, 0x2e, 0x6e, 0x6e, 0x2e, 0x6d, 0x6f, 0x64, 0x75,
  0x6c, 0x65, 0x73, 0x2e, 0x6c, 0x69, 0x6e, 0x65, 0x61, 0x72, 0x2e, 0x4c,
  0x69, 0x6e, 0x65, 0x61, 0x72, 0x5f, 0x30, 0x3b, 0x31, 0x00, 0x00, 0x00,
  0x01, 0x00, 0x00, 0x00, 0x20, 0x00, 0x00, 0x00, 0x98, 0xe5, 0xff, 0xff,
  0x12, 0xe6, 0xff, 0xff, 0x04, 0x00, 0x00, 0x00, 0x80, 0x00, 0x00, 0x00,
  0x9e, 0x1a, 0x15, 0x3f, 0x20, 0xc2, 0xb2, 0x3d, 0x7e, 0x53, 0x4b, 0xbe,
  0xc4, 0x57, 0x5d, 0x3d, 0x5d, 0x76, 0xa1, 0xbe, 0x54, 0x15, 0xa6, 0xbe,
  0x2f, 0x2b, 0x8f, 0x3e, 0x36, 0xda, 0x5d, 0x3d, 0x65, 0x17, 0x6e, 0x3e,
  0x32, 0xb7, 0x92, 0x3e, 0xe8, 0x59, 0x06, 0x3e, 0x5c, 0xdb, 0xdc, 0xbd,
  0x58, 0xbb, 0x8f, 0x3e, 0x54, 0xcd, 0x90, 0xbd, 0x47, 0xae, 0xb4, 0x3d,
  0x67, 0x8c, 0x2f, 0xbe, 0xb2, 0x71, 0xd7, 0xbd, 0x12, 0xcc, 0xfd, 0x3e,
  0xa5, 0xa3, 0x31, 0x3e, 0x14, 0xc0, 0x12, 0x3e, 0xc0, 0x10, 0xe5, 0x3b,
  0xac, 0xb7, 0x18, 0x3e, 0xd1, 0xca, 0xe6, 0x3e, 0xf9, 0x34, 0xae, 0x3e,
  0x52, 0xe6, 0x93, 0xbe, 0xb3, 0x1a, 0xce, 0x3e, 0x20, 0xc9, 0x24, 0x3e,
  0x6b, 0x90, 0x99, 0x3e, 0x71, 0xfe, 0xfe, 0x3e, 0x13, 0x10, 0x12, 0x3e,
  0x4c, 0x5c, 0x64, 0xbc, 0x9d, 0xee, 0xab, 0x3e, 0x82, 0xe6, 0xff, 0xff,
  0x00, 0x00, 0x00, 0x01, 0x8c, 0x00, 0x00, 0x00, 0x06, 0x00, 0x00, 0x00,
  0x08, 0x00, 0x00, 0x00, 0x8c, 0x00, 0x00, 0x00, 0x74, 0x00, 0x00, 0x00,
  0x76, 0x6c, 0x70, 0x5f, 0x68, 0x61, 0x63, 0x6b, 0x61, 0x74, 0x68, 0x6f,
  0x6e, 0x2e, 0x62, 0x61, 0x73, 0x65, 0x6c, 0x69, 0x6e, 0x65, 0x5f, 0x6d,
  0x6f, 0x64, 0x65, 0x6c, 0x2e, 0x42, 0x61, 0x73, 0x65, 0x6c, 0x69, 0x6e,
  0x65, 0x4d, 0x4c, 0x50, 0x2f, 0x74, 0x6f, 0x72, 0x63, 0x68, 0x2e, 0x6e,
  0x6e, 0x2e, 0x6d, 0x6f, 0x64, 0x75, 0x6c, 0x65, 0x73, 0x2e, 0x63, 0x6f,
  0x6e, 0x74, 0x61, 0x69, 0x6e, 0x65, 0x72, 0x2e, 0x53, 0x65, 0x71, 0x75,
  0x65, 0x6e, 0x74, 0x69, 0x61, 0x6c, 0x5f, 0x6e, 0x65, 0x74, 0x2f, 0x74,
  0x6f, 0x72, 0x63, 0x68, 0x2e, 0x6e, 0x6e, 0x2e, 0x6d, 0x6f, 0x64, 0x75,
  0x6c, 0x65, 0x73, 0x2e, 0x6c, 0x69, 0x6e, 0x65, 0x61, 0x72, 0x2e, 0x4c,
  0x69, 0x6e, 0x65, 0x61, 0x72, 0x5f, 0x30, 0x3b, 0x00, 0x00, 0x00, 0x00,
  0x02, 0x00, 0x00, 0x00, 0x20, 0x00, 0x00, 0x00, 0x09, 0x00, 0x00, 0x00,
  0xc8, 0xe6, 0xff, 0xff, 0x42, 0xe7, 0xff, 0xff, 0x04, 0x00, 0x00, 0x00,
  0x80, 0x04, 0x00, 0x00, 0xe3, 0x79, 0x56, 0x3e, 0x11, 0x3c, 0x15, 0x3d,
  0x84, 0xc6, 0xc3, 0xbe, 0x95, 0x51, 0x9c, 0x3e, 0xee, 0xa1, 0x69, 0xbe,
  0x4f, 0x9e, 0x30, 0xbe, 0x0c, 0xa1, 0x0b, 0x3b, 0xfe, 0x34, 0x92, 0x3e,
  0xd5, 0xc0, 0x04, 0x3f, 0x40, 0x32, 0x42, 0xbe, 0x2d, 0xd1, 0xe5, 0x3e,
  0x21, 0x3b, 0x88, 0x3e, 0xd1, 0xf7, 0x88, 0x3d, 0x11, 0x3d, 0x3a, 0xbe,
  0x37, 0xa7, 0xc9, 0x3e, 0x08, 0xb7, 0xb8, 0xbe, 0xf5, 0x7f, 0x0d, 0xbd,
  0x8b, 0x22, 0x39, 0x3e, 0x96, 0xbe, 0x60, 0x3e, 0x8b, 0x3b, 0xd5, 0x3e,
  0x58, 0x10, 0x21, 0x3f, 0x39, 0x8e, 0x55, 0x3f, 0x45, 0x0a, 0x5c, 0x3f,
  0xba, 0x2d, 0x84, 0x3f, 0x57, 0x1a, 0x42, 0x3d, 0x03, 0xb7, 0x4d, 0x3d,
  0xe6, 0x90, 0xb9, 0x3d, 0x6d, 0xc8, 0x2d, 0x3e, 0xf9, 0xe1, 0x39, 0xbf,
  0xa4, 0xfd, 0x9c, 0xbf, 0x39, 0x3e, 0xd2, 0x3e, 0x30, 0xfe, 0xfa, 0xbe,
  0xec, 0x96, 0x08, 0x3e, 0x1a, 0xb8, 0x9c, 0x3e, 0xc4, 0xed, 0x08, 0x3e,
  0xa6, 0x25, 0x30, 0x3e, 0xc8, 0xc9, 0x54, 0x3d, 0x75, 0xe4, 0x89, 0x3e,
  0x00, 0x42, 0x15, 0x3d, 0xad, 0xba, 0xf3, 0xbd, 0x64, 0x56, 0x9a, 0x3d,
  0x87, 0xbd, 0xd5, 0xbd, 0x94, 0x28, 0x01, 0x3e, 0x41, 0x00, 0x91, 0x3e,
  0x49, 0xa6, 0x36, 0x3e, 0xb8, 0x38, 0x15, 0xbe, 0x2a, 0x0a, 0x45, 0x3e,
  0x40, 0x4b, 0x74, 0x3d, 0x4e, 0x57, 0x2d, 0x3e, 0x5e, 0x0b, 0x50, 0xbe,
  0xc3, 0xf1, 0xa8, 0xbe, 0xb3, 0xe0, 0x03, 0xbe, 0xbe, 0xe7, 0x82, 0xbe,
  0xe5, 0x09, 0x8c, 0x3e, 0x0b, 0x6b, 0x98, 0x3e, 0xfa, 0x60, 0xb8, 0x3e,
  0x99, 0x36, 0xb5, 0x3e, 0x7f, 0xb6, 0x20, 0x3e, 0x58, 0xca, 0x90, 0x3e,
  0xc0, 0x99, 0xed, 0xbd, 0x15, 0x4d, 0xf5, 0xbb, 0x36, 0xae, 0x85, 0xbe,
  0x98, 0xb9, 0x83, 0xbd, 0xd8, 0x4c, 0x88, 0x3d, 0xdb, 0xab, 0xa6, 0xbe,
  0x5e, 0xc0, 0xf5, 0xbe, 0x7b, 0xb3, 0x04, 0x3f, 0x4a, 0x0a, 0x2c, 0x3e,
  0x11, 0xc4, 0x90, 0xbc, 0x96, 0x4e, 0xf5, 0x3d, 0xac, 0x1b, 0xf6, 0x3e,
  0x86, 0x2e, 0xf3, 0x3e, 0xd8, 0x80, 0xc7, 0x3e, 0x1a, 0xb1, 0x19, 0xbe,
  0x79, 0x34, 0x32, 0xbf, 0x2a, 0x91, 0xa3, 0xbd, 0x77, 0xba, 0x55, 0xbf,
  0xf2, 0x9b, 0x08, 0xbf, 0x7a, 0xc8, 0xb9, 0x3d, 0xd9, 0x7f, 0x5e, 0xbf,
  0xdf, 0xed, 0x81, 0xbf, 0x87, 0xe8, 0x78, 0x3d, 0x87, 0x05, 0xb9, 0x3e,
  0x88, 0x45, 0xc1, 0x3d, 0x9a, 0x53, 0x1c, 0xbe, 0xf0, 0x5d, 0xe3, 0xbd,
  0x27, 0x16, 0x03, 0x3f, 0xd9, 0x9a, 0x20, 0xbf, 0xdc, 0x6e, 0x63, 0xbf,
  0x0e, 0x63, 0x8d, 0xbe, 0xa3, 0xc4, 0x80, 0x3e, 0xe0, 0xb1, 0x99, 0x3d,
  0x17, 0x60, 0x9a, 0x3d, 0x12, 0x6d, 0xe4, 0x3e, 0x10, 0x41, 0x7f, 0xbd,
  0xb9, 0x37, 0x92, 0xbf, 0x51, 0x73, 0x08, 0x3f, 0x63, 0x87, 0x0a, 0xbe,
  0xce, 0xec, 0xef, 0xbe, 0xdb, 0x22, 0xa5, 0xbe, 0xb0, 0x78, 0x43, 0xbe,
  0x5c, 0x88, 0xaa, 0x3d, 0xf8, 0x36, 0x34, 0xbd, 0xe3, 0xc4, 0x77, 0xbe,
  0xe0, 0x1a, 0x00, 0x3c, 0x93, 0x28, 0x69, 0xbe, 0x04, 0xcb, 0x90, 0xbe,
  0xa3, 0xf5, 0x3b, 0xbe, 0x07, 0x68, 0x63, 0xbb, 0x1e, 0x6d, 0x87, 0xbc,
  0xdd, 0xbc, 0x0b, 0x3f, 0x76, 0x20, 0x97, 0xbe, 0x5c, 0x6d, 0x1d, 0xbe,
  0xe2, 0x91, 0x46, 0xbe, 0xe8, 0xaa, 0x20, 0xbf, 0x48, 0xf8, 0x4c, 0xbf,
  0x3c, 0xbd, 0xd8, 0xbe, 0x5a, 0x2c, 0x96, 0xbe, 0x43, 0x12, 0x13, 0xbe,
  0x76, 0x58, 0x4c, 0xbe, 0x00, 0x28, 0x72, 0x3a, 0xc0, 0x05, 0xfe, 0xbd,
  0x40, 0x39, 0xbd, 0xbc, 0x30, 0x4c, 0x67, 0xbe, 0x20, 0x4a, 0x6a, 0xbe,
  0x6e, 0x22, 0x47, 0xbe, 0x71, 0xd3, 0xe7, 0x3d, 0x6a, 0xaf, 0xdd, 0xbc,
  0x57, 0xbe, 0x03, 0x3f, 0xa1, 0x47, 0x8b, 0xbd, 0x5c, 0x2d, 0xb1, 0x3e,
  0xe5, 0xdd, 0xb4, 0x3e, 0x3f, 0x09, 0x00, 0xbe, 0xb9, 0x21, 0x57, 0x3e,
  0x28, 0x2e, 0x5f, 0xbb, 0x8b, 0xd7, 0x02, 0xbe, 0x56, 0xaa, 0x8d, 0xbe,
  0x8b, 0xab, 0xa9, 0xbe, 0x5d, 0xbf, 0xb5, 0x3d, 0xd8, 0xf9, 0xa7, 0xbd,
  0x31, 0x66, 0xfc, 0x3d, 0xe3, 0x43, 0x91, 0xbe, 0x0e, 0x44, 0x71, 0x3e,
  0xdd, 0x62, 0x82, 0xbe, 0x7d, 0xd3, 0x5d, 0x3e, 0x50, 0x4a, 0xe8, 0x3e,
  0xd4, 0x4e, 0x1b, 0x3f, 0xed, 0xa2, 0x1d, 0x3f, 0xe8, 0x58, 0x5f, 0x3f,
  0x9d, 0x2e, 0xa2, 0x3e, 0xf0, 0xb4, 0xfa, 0x3e, 0x5e, 0xaa, 0xb9, 0x3e,
  0x39, 0x49, 0x17, 0x3f, 0x95, 0x99, 0xe6, 0xbe, 0x6d, 0xdf, 0x7c, 0x3d,
  0x90, 0xb6, 0x03, 0xbf, 0x99, 0x33, 0x56, 0x3e, 0x26, 0x0d, 0xd8, 0x3d,
  0x60, 0x9a, 0x04, 0xbe, 0x27, 0x3d, 0x8f, 0x3c, 0xa9, 0xd4, 0xe6, 0x3e,
  0x27, 0xfe, 0x8c, 0x3e, 0xe2, 0x00, 0x23, 0xbe, 0x9f, 0x93, 0x46, 0xbf,
  0x4e, 0x70, 0x9c, 0x3e, 0xc5, 0x0e, 0xa6, 0xbe, 0xd6, 0xe9, 0x23, 0xbf,
  0x3f, 0x51, 0xaf, 0x3e, 0xc1, 0x6f, 0xb5, 0xbe, 0x1b, 0x16, 0x94, 0xbf,
  0xfb, 0xc1, 0x49, 0xbd, 0xe7, 0x84, 0x8d, 0x3c, 0x9d, 0xf3, 0xc1, 0xbe,
  0xd0, 0xb8, 0xed, 0xbe, 0x21, 0xc0, 0x69, 0xbe, 0x27, 0xb2, 0xd7, 0xbe,
  0xe8, 0x08, 0xa6, 0xbf, 0x71, 0x05, 0x84, 0x3e, 0xbf, 0x34, 0xb5, 0x3e,
  0xdb, 0x9a, 0x83, 0x3d, 0x1b, 0x74, 0xa9, 0x3e, 0x02, 0x7a, 0xdc, 0x3e,
  0xff, 0x00, 0xb9, 0x3e, 0x36, 0x30, 0xa0, 0xbd, 0x56, 0xf2, 0xd2, 0x3e,
  0xfe, 0x7c, 0x2b, 0x3f, 0x50, 0x14, 0x25, 0xbd, 0x38, 0xa7, 0x4b, 0x3e,
  0x48, 0x4e, 0xd0, 0x3d, 0x38, 0x34, 0x7a, 0x3e, 0xe7, 0x5c, 0x3a, 0x3e,
  0xd7, 0x27, 0x1f, 0xbe, 0x30, 0x2b, 0xcb, 0x3e, 0x6b, 0x2a, 0xf3, 0x3e,
  0xa8, 0x00, 0x3c, 0xbe, 0xb0, 0xbc, 0x73, 0x3e, 0x2b, 0x4f, 0xb9, 0x3e,
  0x08, 0x83, 0x12, 0xbe, 0x71, 0x2d, 0x8f, 0x3e, 0x46, 0x61, 0x8f, 0x3e,
  0x93, 0x2f, 0xd8, 0xbd, 0xe1, 0xfd, 0x8b, 0xbe, 0x7a, 0xe8, 0x38, 0x3e,
  0x32, 0x46, 0xc7, 0x3e, 0xb3, 0xf0, 0x62, 0xbe, 0x41, 0x63, 0xb3, 0xbe,
  0x28, 0x0b, 0xd1, 0xbe, 0xc5, 0xcc, 0x04, 0xbf, 0x6f, 0x2d, 0xdf, 0xbe,
  0x5d, 0x5d, 0xe0, 0x3c, 0xae, 0x51, 0xda, 0xbc, 0xb8, 0x6a, 0x09, 0x3c,
  0xca, 0xdd, 0x1e, 0xbe, 0xe9, 0x07, 0x48, 0xbf, 0x3d, 0x03, 0x01, 0xbf,
  0x95, 0x2a, 0xdc, 0x3e, 0x78, 0x81, 0x45, 0x3d, 0x6c, 0xca, 0xb0, 0xbd,
  0xfe, 0x36, 0x0d, 0x3e, 0xf0, 0x01, 0x02, 0xbe, 0x10, 0xee, 0x5c, 0xbe,
  0x86, 0x22, 0x79, 0x3e, 0x73, 0x34, 0x1b, 0xbe, 0x1c, 0xda, 0x88, 0xbd,
  0xaa, 0xc7, 0xa9, 0xbe, 0x74, 0x18, 0x83, 0xbd, 0x77, 0x69, 0x12, 0xbe,
  0xba, 0xc8, 0xbd, 0x3d, 0x05, 0x6a, 0x34, 0xbf, 0x78, 0x35, 0x9d, 0xbf,
  0xa3, 0x34, 0xb4, 0xbe, 0x4e, 0x22, 0xdb, 0xbd, 0x82, 0x4e, 0x19, 0xbe,
  0xb0, 0x6c, 0xcf, 0x3e, 0x3b, 0x4f, 0x9e, 0x3e, 0xd6, 0x16, 0x99, 0x3e,
  0xf8, 0xf0, 0xc7, 0x3d, 0x62, 0x80, 0x3a, 0xbd, 0x57, 0x05, 0x6a, 0xbd,
  0x92, 0xf9, 0x4a, 0xbf, 0xbb, 0xb7, 0x7e, 0x3d, 0xf9, 0x23, 0x89, 0xbf,
  0xa9, 0xb2, 0xf0, 0xbe, 0xbd, 0x47, 0xf1, 0xbe, 0x44, 0x64, 0x12, 0xbe,
  0x1b, 0x41, 0x67, 0xbf, 0x6a, 0x59, 0xad, 0xbe, 0x58, 0x66, 0x2e, 0xbe,
  0x3c, 0xec, 0x0a, 0xbf, 0x98, 0x86, 0xb1, 0x3e, 0x45, 0x73, 0x62, 0xbc,
  0x2e, 0x07, 0x7b, 0xbd, 0xda, 0x85, 0x7c, 0xbe, 0x0f, 0xdd, 0xbf, 0xbe,
  0x4d, 0x99, 0xc8, 0xbe, 0x84, 0xc1, 0x1d, 0xbf, 0xaa, 0x57, 0x0e, 0xbe,
  0xae, 0xd7, 0x16, 0xbf, 0x2d, 0x99, 0x99, 0x3e, 0x90, 0x1d, 0x79, 0x3e,
  0x6f, 0x3c, 0xce, 0x3e, 0x54, 0x60, 0x86, 0xbd, 0xac, 0xf7, 0xef, 0x3e,
  0xd1, 0x08, 0x2c, 0xbe, 0x9c, 0x94, 0x9e, 0x3e, 0xaf, 0x20, 0xba, 0x3e,
  0x6a, 0x36, 0x34, 0xbe, 0x41, 0xd6, 0x6e, 0x3e, 0xee, 0xc8, 0xda, 0xbd,
  0xb5, 0x4b, 0x15, 0xbf, 0xd1, 0x3e, 0xbe, 0x3e, 0xc9, 0xc7, 0x90, 0xbd,
  0x6a, 0x3e, 0x19, 0x3f, 0x07, 0x70, 0xff, 0x3e, 0x28, 0xe5, 0x15, 0x3f,
  0x41, 0xb2, 0x53, 0x3e, 0x24, 0xcb, 0x5d, 0x3e, 0xda, 0x90, 0xc1, 0x3d,
  0x67, 0xc5, 0x49, 0x3d, 0x22, 0x2d, 0xf4, 0xbe, 0x23, 0x60, 0x33, 0xbf,
  0xa2, 0xad, 0x23, 0xbf, 0x72, 0x13, 0xb1, 0xbe, 0x9c, 0xca, 0x1c, 0xbe,
  0x49, 0x7c, 0xf6, 0xbc, 0xde, 0x84, 0xed, 0xbe, 0xdd, 0x4d, 0x8f, 0xbe,
  0x68, 0xd3, 0xdd, 0x3e, 0xb2, 0xeb, 0xff, 0xff, 0x00, 0x00, 0x00, 0x01,
  0x8c, 0x00, 0x00, 0x00, 0x05, 0x00, 0x00, 0x00, 0x08, 0x00, 0x00, 0x00,
  0x8c, 0x00, 0x00, 0x00, 0x75, 0x00, 0x00, 0x00, 0x76, 0x6c, 0x70, 0x5f,
  0x68, 0x61, 0x63, 0x6b, 0x61, 0x74, 0x68, 0x6f, 0x6e, 0x2e, 0x62, 0x61,
  0x73, 0x65, 0x6c, 0x69, 0x6e, 0x65, 0x5f, 0x6d, 0x6f, 0x64, 0x65, 0x6c,
  0x2e, 0x42, 0x61, 0x73, 0x65, 0x6c, 0x69, 0x6e, 0x65, 0x4d, 0x4c, 0x50,
  0x2f, 0x74, 0x6f, 0x72, 0x63, 0x68, 0x2e, 0x6e, 0x6e, 0x2e, 0x6d, 0x6f,
  0x64, 0x75, 0x6c, 0x65, 0x73, 0x2e, 0x63, 0x6f, 0x6e, 0x74, 0x61, 0x69,
  0x6e, 0x65, 0x72, 0x2e, 0x53, 0x65, 0x71, 0x75, 0x65, 0x6e, 0x74, 0x69,
  0x61, 0x6c, 0x5f, 0x6e, 0x65, 0x74, 0x2f, 0x74, 0x6f, 0x72, 0x63, 0x68,
  0x2e, 0x6e, 0x6e, 0x2e, 0x6d, 0x6f, 0x64, 0x75, 0x6c, 0x65, 0x73, 0x2e,
  0x6c, 0x69, 0x6e, 0x65, 0x61, 0x72, 0x2e, 0x4c, 0x69, 0x6e, 0x65, 0x61,
  0x72, 0x5f, 0x32, 0x3b, 0x31, 0x00, 0x00, 0x00, 0x02, 0x00, 0x00, 0x00,
  0x20, 0x00, 0x00, 0x00, 0x20, 0x00, 0x00, 0x00, 0xf8, 0xeb, 0xff, 0xff,
  0x72, 0xec, 0xff, 0xff, 0x04, 0x00, 0x00, 0x00, 0x00, 0x10, 0x00, 0x00,
  0x2c, 0xa1, 0xfb, 0xbd, 0x3c, 0x37, 0x15, 0xbd, 0x5b, 0x0f, 0x06, 0x3e,
  0xfe, 0x98, 0xb9, 0x3d, 0x16, 0x18, 0xe5, 0xbd, 0x1d, 0x28, 0x11, 0xbe,
  0x72, 0x67, 0xf7, 0xbd, 0xd9, 0xa4, 0x32, 0xbe, 0x7c, 0xae, 0x0b, 0xbe,
  0xfc, 0x0f, 0x33, 0xbd, 0xe6, 0x54, 0xf4, 0x3d, 0x38, 0x65, 0xf2, 0x3c,
  0x2e, 0xaf, 0x09, 0xbe, 0xd2, 0x37, 0x11, 0xbe, 0xf2, 0x1a, 0xb4, 0x3d,
  0x50, 0xa6, 0x06, 0xbe, 0xc0, 0x4e, 0xb2, 0xbc, 0x12, 0xac, 0xad, 0x3d,
  0x4d, 0x8e, 0xa7, 0xbd, 0x18, 0xe8, 0x9d, 0xbc, 0x90, 0x1b, 0x7c, 0xbc,
  0xfc, 0x4d, 0x2b, 0xbd, 0xb4, 0x90, 0xb7, 0xbd, 0x1a, 0x5e, 0x21, 0xbe,
  0x08, 0x54, 0x12, 0xbe, 0x9b, 0xdb, 0xc1, 0xbd, 0xd7, 0xd5, 0x2e, 0x3e,
  0xb8, 0xde, 0xae, 0xbd, 0x7d, 0x1e, 0xf3, 0xbd, 0x1c, 0x83, 0x2f, 0x3d,
  0x2c, 0x90, 0x47, 0x3d, 0x52, 0x5d, 0xc6, 0x3d, 0x4b, 0x5b, 0xb2, 0x3e,
  0xc5, 0x5c, 0x74, 0x3e, 0xce, 0x0e, 0x25, 0x3e, 0x4f, 0xb6, 0x65, 0xbd,
  0xdf, 0x43, 0xf0, 0x3d, 0xa8, 0xd8, 0x85, 0xbc, 0x85, 0xdb, 0x5f, 0xbe,
  0xbf, 0x39, 0x9a, 0x3e, 0x9e, 0x20, 0x3e, 0xbf, 0x38, 0x01, 0xaf, 0x3e,
  0xf1, 0xe2, 0x04, 0xbf, 0x90, 0x5f, 0x01, 0x3c, 0xad, 0xd3, 0x11, 0x3f,
  0xa8, 0x48, 0x20, 0x3d, 0xcd, 0x61, 0xeb, 0xbd, 0x2f, 0xc6, 0x05, 0xbe,
  0x36, 0xfe, 0x25, 0xbf, 0xef, 0xb4, 0x63, 0x3e, 0x8d, 0x74, 0x26, 0x3f,
  0xa4, 0x81, 0xbd, 0x3e, 0x4f, 0x86, 0x1b, 0xbf, 0xf5, 0xfd, 0x3a, 0xbe,
  0x6d, 0x4a, 0x19, 0x3d, 0x19, 0x28, 0x41, 0x3e, 0x14, 0x21, 0x03, 0x3d,
  0x96, 0xfc, 0xb8, 0x3e, 0xd3, 0x11, 0x27, 0xbe, 0xe9, 0x23, 0x94, 0x3e,
  0x2a, 0x48, 0xb2, 0x3e, 0xf9, 0x20, 0x9d, 0xbe, 0x3a, 0x8f, 0x45, 0xbe,
  0xae, 0x3e, 0xdb, 0x3e, 0x83, 0x6c, 0xe8, 0xbc, 0xed, 0xba, 0x06, 0x3e,
  0xe0, 0x3c, 0x1a, 0xbe, 0xd2, 0xde, 0x66, 0xbd, 0x44, 0x8e, 0xbb, 0x3d,
  0xd0, 0xc0, 0x1d, 0xbd, 0x04, 0x43, 0xa8, 0xbc, 0x39, 0xcd, 0xd8, 0xbd,
  0x9b, 0x87, 0xbe, 0x3d, 0x8b, 0xd6, 0xcb, 0x3d, 0x7b, 0x88, 0x62, 0x3d,
  0xdc, 0x73, 0xcb, 0xbd, 0x86, 0xa0, 0x08, 0xbe, 0x20, 0xa2, 0x9c, 0x3c,
  0x76, 0x3a, 0xb7, 0x3c, 0x80, 0xe9, 0xb2, 0xbd, 0x5c, 0x98, 0x4a, 0xbd,
  0xaa, 0x4c, 0xb8, 0x3d, 0x20, 0xb8, 0x66, 0x3c, 0xf2, 0x5a, 0x91, 0xbc,
  0x20, 0x32, 0x32, 0xbd, 0x67, 0xdb, 0x3f, 0xbe, 0xba, 0x96, 0x45, 0xbe,
  0xe5, 0x8e, 0xb3, 0xbd, 0x31, 0x08, 0xb8, 0xbd, 0xeb, 0xfa, 0xcf, 0x3c,
  0xe9, 0xee, 0x9e, 0xbd, 0x52, 0x72, 0xb3, 0xbd, 0x8e, 0x06, 0x0e, 0x3e,
  0x48, 0x90, 0x0f, 0x3d, 0xcd, 0x98, 0x0f, 0x3e, 0x9d, 0x03, 0x8f, 0xbd,
  0xcb, 0xef, 0xea, 0x3d, 0xf7, 0x3d, 0x5b, 0x3e, 0x13, 0xab, 0x3b, 0xbd,
  0x1c, 0x3c, 0x63, 0xbe, 0x09, 0xf2, 0x3b, 0x3b, 0x65, 0x6b, 0x84, 0xbd,
  0x76, 0xed, 0x7b, 0xbe, 0xe1, 0x48, 0x5d, 0x3e, 0xce, 0xf1, 0xe8, 0xbe,
  0x51, 0xe2, 0xa4, 0x3e, 0xc0, 0x81, 0xa2, 0xbe, 0x5f, 0xac, 0x27, 0xbe,
  0xbb, 0x19, 0xa2, 0x3e, 0xf4, 0x56, 0x38, 0x3d, 0xeb, 0x03, 0x4c, 0x3e,
  0x91, 0xe4, 0x86, 0xbc, 0xf6, 0x22, 0x02, 0xbf, 0x75, 0xeb, 0x9a, 0x3e,
  0x33, 0xae, 0x87, 0x3e, 0x58, 0xfa, 0x95, 0x3d, 0xf3, 0xd1, 0xdf, 0xbe,
  0xfb, 0x48, 0x02, 0xbe, 0x08, 0xc8, 0x97, 0x3d, 0xf6, 0xbb, 0x7f, 0x3e,
  0xa6, 0xd0, 0x5a, 0xbd, 0x88, 0xca, 0xb3, 0x3e, 0x5b, 0x99, 0x89, 0xbe,
  0x59, 0x41, 0xcb, 0x3e, 0x25, 0xc9, 0xbf, 0x3e, 0x5d, 0x5c, 0x80, 0xbe,
  0x7f, 0x96, 0xa6, 0xbe, 0x2f, 0x25, 0xc0, 0x3e, 0x74, 0x3b, 0xfa, 0x3d,
  0xbb, 0xdf, 0x4f, 0xbe, 0xc2, 0x92, 0x9a, 0x3e, 0xf6, 0xad, 0xb6, 0xbd,
  0xa9, 0x2e, 0x14, 0xbe, 0xa4, 0xd9, 0x0b, 0x3d, 0xcf, 0x82, 0x16, 0x3e,
  0x5a, 0x28, 0x2c, 0x3f, 0x4c, 0xf5, 0xef, 0xbe, 0xe6, 0xc1, 0xf0, 0x3d,
  0xcb, 0xcb, 0xc6, 0x3e, 0x2e, 0xa2, 0xd5, 0xbd, 0x8b, 0xc2, 0x9e, 0xbe,
  0x3c, 0xe2, 0x2d, 0x3d, 0x0e, 0x34, 0x45, 0x3d, 0x98, 0xfd, 0xff, 0xbd,
  0x21, 0x33, 0x83, 0x3f, 0xb7, 0x04, 0x1d, 0x3e, 0x3d, 0x87, 0x93, 0xbf,
  0xc2, 0xfe, 0xb1, 0x3d, 0x04, 0x35, 0x0a, 0x3f, 0x05, 0x70, 0x2f, 0x3f,
  0xed, 0xde, 0xc1, 0xbc, 0xc5, 0xd8, 0xef, 0xbe, 0x3f, 0xc0, 0x08, 0x3e,
  0xf3, 0x75, 0x0a, 0xbf, 0x15, 0xf6, 0x1b, 0xbf, 0x70, 0x4f, 0xa3, 0x3e,
  0x4f, 0x8a, 0x7c, 0xbe, 0x60, 0x5b, 0x37, 0x3e, 0x3d, 0xdc, 0xdf, 0x3e,
  0x7c, 0x14, 0x5b, 0xbd, 0x19, 0x8d, 0x29, 0x3e, 0xc0, 0xfc, 0x07, 0xbd,
  0xd5, 0x54, 0xf7, 0xbe, 0xb1, 0xd9, 0x9a, 0x3e, 0x97, 0x77, 0xed, 0xbd,
  0x9c, 0xb5, 0xeb, 0xbd, 0x52, 0xf5, 0x8a, 0x3e, 0xfc, 0x5b, 0x51, 0x3e,
  0x1e, 0xe2, 0x01, 0x3f, 0x6c, 0x05, 0x39, 0x3e, 0xd9, 0x6d, 0x9d, 0x3e,
  0x60, 0x32, 0x79, 0x3d, 0x4f, 0xfb, 0xee, 0xbd, 0x40, 0x6f, 0x35, 0x3b,
  0x8d, 0xf1, 0x33, 0x3d, 0x80, 0x51, 0x95, 0xbb, 0xd1, 0x45, 0xd3, 0x3e,
  0xa5, 0xae, 0x71, 0x3d, 0x8a, 0x01, 0xa5, 0xbe, 0xb4, 0x64, 0x31, 0x3c,
  0xca, 0x0e, 0x99, 0x3e, 0x57, 0xc9, 0x8a, 0x3d, 0x5b, 0x18, 0x3f, 0x3e,
  0x5d, 0x45, 0xd9, 0xba, 0x93, 0x8d, 0x0d, 0x3e, 0x69, 0xdf, 0x15, 0x3d,
  0x47, 0x6e, 0x9e, 0x3d, 0x79, 0x8b, 0xb9, 0xbe, 0x39, 0x09, 0x3d, 0xbe,
  0xb0, 0x08, 0x0d, 0x3e, 0x81, 0xfd, 0x69, 0x3e, 0xdf, 0x0e, 0xbc, 0xbe,
  0x7c, 0xb4, 0x4e, 0x3e, 0x2f, 0x38, 0xb6, 0x3d, 0x44, 0xc9, 0x4c, 0xbf,
  0x91, 0x86, 0x1b, 0xbf, 0xc7, 0xb9, 0x1d, 0x3e, 0x17, 0x6a, 0x2b, 0xbe,
  0x8b, 0x3f, 0xab, 0x3e, 0xce, 0xb6, 0xa7, 0xbe, 0xac, 0x7f, 0xb0, 0xbe,
  0xf2, 0xe6, 0xcf, 0x3e, 0xdf, 0x98, 0x63, 0xbe, 0xd6, 0x0d, 0xe3, 0x3d,
  0x39, 0x8f, 0xcd, 0x3e, 0xae, 0x29, 0x1d, 0xbe, 0xa3, 0xa1, 0x9d, 0x3e,
  0xde, 0x77, 0xfb, 0x3c, 0x67, 0x6d, 0xe7, 0xbe, 0x51, 0xd3, 0x67, 0x3d,
  0x4a, 0xf6, 0xe0, 0x3e, 0xe4, 0x51, 0xe3, 0xbe, 0x55, 0x1e, 0x68, 0x3e,
  0x2e, 0x55, 0x37, 0xbd, 0x1f, 0xbb, 0xae, 0x3e, 0xf9, 0x07, 0x89, 0x3e,
  0x18, 0x41, 0x2a, 0xbe, 0xf1, 0x81, 0x7c, 0x3e, 0x35, 0xc2, 0x16, 0x3e,
  0xf6, 0x60, 0xdd, 0xbd, 0x82, 0x5e, 0x0a, 0xbe, 0x6e, 0x27, 0x2a, 0xbe,
  0x9f, 0x8a, 0xcd, 0x3d, 0x07, 0xb8, 0xba, 0x3e, 0x02, 0x84, 0xb2, 0x3e,
  0x79, 0x2b, 0xe3, 0x3c, 0xdb, 0xab, 0x1b, 0xbd, 0x97, 0x58, 0xec, 0x3e,
  0xd2, 0x30, 0x12, 0x3e, 0xa8, 0x0f, 0x7a, 0xbd, 0x3e, 0x2f, 0x0b, 0x3e,
  0x55, 0x13, 0xe0, 0x3e, 0x6d, 0xe8, 0xa1, 0x3e, 0x2d, 0x21, 0xf3, 0xbd,
  0x88, 0x23, 0x59, 0x3e, 0xb7, 0x8d, 0xf5, 0xbd, 0xe3, 0x97, 0x89, 0xbe,
  0x38, 0x07, 0xde, 0x3c, 0x71, 0x7d, 0x8a, 0x3d, 0x58, 0x01, 0x34, 0x3e,
  0xee, 0xcf, 0xf3, 0x3e, 0x03, 0x75, 0x82, 0x3e, 0xd1, 0x13, 0xde, 0xbe,
  0x19, 0x84, 0xa4, 0x3c, 0xce, 0xc9, 0x27, 0x3d, 0xe5, 0x9e, 0x83, 0x3d,
  0xd2, 0x27, 0xb0, 0xbb, 0x3e, 0xd8, 0x36, 0xbe, 0xfc, 0xa3, 0x26, 0xbe,
  0xb9, 0xc8, 0x11, 0xbe, 0xed, 0x25, 0x0e, 0x3e, 0x8b, 0xad, 0x72, 0xbe,
  0xf0, 0x28, 0x84, 0xbe, 0x3e, 0x26, 0x83, 0x3e, 0xa0, 0xbe, 0xaf, 0x3e,
  0x55, 0x9c, 0x9a, 0xbe, 0xa5, 0xf9, 0xdd, 0x3d, 0x31, 0x96, 0x9f, 0x3e,
  0x09, 0x17, 0x6f, 0xbf, 0x78, 0xd2, 0x2e, 0xbf, 0x3f, 0x0f, 0xc6, 0x3d,
  0xf2, 0xb8, 0x1d, 0xbe, 0xb2, 0xfe, 0x39, 0x3e, 0xc7, 0x8d, 0x0d, 0xbe,
  0x12, 0x26, 0x82, 0xbe, 0xfa, 0x82, 0xa3, 0x3e, 0xa4, 0x7e, 0x6e, 0xbe,
  0x40, 0xd6, 0x1f, 0xbb, 0x91, 0xff, 0x88, 0x3e, 0xa0, 0xb6, 0x31, 0x3d,
  0xd0, 0x85, 0x95, 0x3e, 0x51, 0xf1, 0x14, 0x3e, 0x74, 0xd5, 0x45, 0xbf,
  0x8f, 0x16, 0xd3, 0x3d, 0xc0, 0xa4, 0x95, 0x3e, 0xff, 0x86, 0xf6, 0xbe,
  0x3e, 0xc7, 0x59, 0x3e, 0xe2, 0xef, 0xbd, 0xbe, 0xf3, 0xe4, 0x9e, 0x3e,
  0x1f, 0x93, 0x87, 0x3e, 0xa8, 0x1f, 0xc3, 0xbd, 0x96, 0x19, 0xb4, 0x3e,
  0x67, 0x0b, 0xa4, 0x3d, 0xc3, 0x92, 0x9a, 0xbe, 0x98, 0x50, 0xa1, 0x3d,
  0x49, 0x50, 0x41, 0xbe, 0x24, 0x96, 0x86, 0x3b, 0xf6, 0x76, 0x97, 0x3e,
  0xb1, 0xa3, 0x98, 0x3e, 0x5f, 0x59, 0xa9, 0x3e, 0x0b, 0x83, 0x01, 0xbf,
  0x4f, 0xe0, 0x2f, 0x3e, 0x76, 0xda, 0xec, 0xbd, 0x6f, 0xf9, 0x1d, 0x3e,
  0x5b, 0xd8, 0x89, 0x3e, 0xd0, 0x59, 0x33, 0x3e, 0xbd, 0xa3, 0xcc, 0x3e,
  0x2c, 0x52, 0xf1, 0xbc, 0x5e, 0x2b, 0x4f, 0x3e, 0xa3, 0x40, 0x2e, 0x3e,
  0xc1, 0x36, 0x7a, 0xbe, 0x70, 0x4a, 0x11, 0xbc, 0xa3, 0xbd, 0x09, 0xbc,
  0xec, 0xf1, 0xca, 0xbd, 0xc2, 0x39, 0x9d, 0x3e, 0x9e, 0x58, 0x4a, 0xbe,
  0x60, 0x2d, 0xab, 0xbe, 0x0c, 0xd4, 0x38, 0x3e, 0x9f, 0xed, 0x1d, 0x3e,
  0x7b, 0x0c, 0x66, 0x3e, 0x3a, 0x96, 0x96, 0x3d, 0xf7, 0xb1, 0x7b, 0xbe,
  0x7a, 0xfd, 0x8a, 0x3d, 0x6e, 0x1a, 0x39, 0x3e, 0x75, 0x5c, 0x57, 0x3e,
  0xd7, 0x26, 0xbc, 0xbe, 0xab, 0xbb, 0x9f, 0xbe, 0xcd, 0xa8, 0xd1, 0x3d,
  0x18, 0x8d, 0xa8, 0x3d, 0x7c, 0x96, 0x90, 0xbe, 0xff, 0x41, 0x6a, 0x3e,
  0xdf, 0x03, 0xda, 0xbe, 0xba, 0xee, 0x21, 0x3f, 0xfa, 0xd4, 0xad, 0x3e,
  0x4c, 0xa9, 0x25, 0xbe, 0xef, 0xeb, 0xac, 0xbd, 0x7a, 0xe3, 0xf6, 0x3d,
  0xc5, 0x01, 0x84, 0x3d, 0x16, 0xb3, 0x1e, 0x3f, 0x63, 0x21, 0x02, 0xbf,
  0xf9, 0xef, 0xad, 0x3e, 0x04, 0x61, 0xca, 0xbd, 0x6b, 0x4d, 0x1c, 0xbe,
  0x60, 0xe0, 0x3a, 0x3c, 0x03, 0xa7, 0x97, 0xbe, 0x71, 0x8b, 0x11, 0x3e,
  0xbd, 0x61, 0x4a, 0xbe, 0xab, 0xe4, 0x6c, 0x3d, 0xfc, 0x55, 0x10, 0xbf,
  0x61, 0x0b, 0xe4, 0x3e, 0xe1, 0xed, 0x0c, 0xbf, 0x59, 0x22, 0x48, 0x3e,
  0xf0, 0x41, 0xc1, 0xbc, 0x2a, 0xb6, 0xda, 0xbd, 0xf8, 0xc2, 0x85, 0x3d,
  0xf9, 0x3a, 0x6f, 0x3e, 0xc3, 0x71, 0xb6, 0x3e, 0x71, 0x68, 0xa2, 0x3e,
  0x0f, 0x3c, 0xb2, 0x3e, 0x3b, 0xb7, 0xa3, 0x3c, 0xb6, 0xe7, 0xcd, 0xbe,
  0xb5, 0x7d, 0xd5, 0xbc, 0xd5, 0xd9, 0xba, 0x3e, 0x91, 0x36, 0xe4, 0x3d,
  0x47, 0x60, 0xbd, 0x3e, 0xdc, 0x1b, 0xb1, 0x3d, 0xd8, 0x44, 0xe0, 0xbc,
  0xd8, 0x99, 0x1a, 0xbd, 0xc2, 0xa6, 0xa3, 0xbe, 0x10, 0x15, 0x45, 0xbd,
  0x82, 0x01, 0x92, 0xbe, 0x64, 0x56, 0x95, 0x3e, 0x2d, 0x7c, 0xec, 0xbe,
  0x38, 0xe1, 0x5e, 0x3d, 0x14, 0x1d, 0x5d, 0x3d, 0x03, 0x45, 0x25, 0x3e,
  0xbb, 0xe8, 0x3b, 0xbf, 0xa0, 0x1b, 0x47, 0xbd, 0xb7, 0xf1, 0x6d, 0xbf,
  0xcf, 0xc3, 0xf4, 0x3d, 0x7e, 0x0a, 0x1d, 0x3f, 0x94, 0x74, 0x3d, 0x3f,
  0xa5, 0x3f, 0xd8, 0xbe, 0x95, 0x7b, 0x53, 0xbd, 0x50, 0xbd, 0x1f, 0x3b,
  0x3d, 0x52, 0xac, 0x3e, 0xc9, 0x1d, 0x11, 0x3e, 0x9c, 0xdc, 0xe1, 0x3e,
  0x1f, 0x44, 0xb6, 0xbe, 0x81, 0xcc, 0x10, 0x3f, 0x04, 0xe5, 0x9e, 0x3e,
  0x90, 0xae, 0xa0, 0xbe, 0x8c, 0xd6, 0xf2, 0xbe, 0xc0, 0x80, 0xca, 0x3d,
  0x15, 0x52, 0x24, 0x3e, 0x5f, 0xcb, 0x1a, 0xbd, 0x14, 0xd7, 0xf4, 0x3e,
  0x75, 0x0c, 0xae, 0x3e, 0x1e, 0x45, 0x1d, 0xbe, 0xcc, 0x4f, 0x45, 0x3d,
  0xf8, 0x63, 0x06, 0x3e, 0x50, 0xaa, 0xaf, 0x3e, 0x31, 0x66, 0x08, 0x3f,
  0x6d, 0xb5, 0xbc, 0xbe, 0x70, 0x00, 0xbb, 0x3e, 0x77, 0xcf, 0x17, 0x3e,
  0xc8, 0x76, 0x45, 0xbe, 0xd3, 0x71, 0x25, 0xbe, 0xf6, 0x80, 0x83, 0x3d,
  0x14, 0xd8, 0x51, 0xbd, 0xf9, 0x3d, 0x91, 0x3e, 0x5e, 0x17, 0x38, 0x3e,
  0x8a, 0xd2, 0xa5, 0xbe, 0x9c, 0x56, 0x85, 0x3e, 0xf1, 0x2c, 0x98, 0x3e,
  0x53, 0xa8, 0x39, 0x3e, 0xb7, 0xaa, 0x37, 0x3e, 0x30, 0x4c, 0x77, 0xbe,
  0xa4, 0x97, 0x2f, 0xbe, 0x2d, 0x65, 0x27, 0xbd, 0x3f, 0x21, 0xb6, 0x3e,
  0xb5, 0x58, 0x73, 0xbe, 0x40, 0x8c, 0x17, 0xbe, 0x19, 0x5c, 0x7a, 0x3e,
  0xac, 0x1c, 0x98, 0x3e, 0x8d, 0xe7, 0x4f, 0xbd, 0x9b, 0x7a, 0x16, 0xbc,
  0x9e, 0x98, 0x74, 0xbe, 0x52, 0xdd, 0x4f, 0x3f, 0xea, 0x69, 0xd9, 0x3e,
  0x2e, 0x9f, 0xd8, 0x3d, 0x40, 0xdb, 0xe2, 0x3c, 0x56, 0xc6, 0x6a, 0x3e,
  0xe6, 0x9a, 0xa5, 0x3e, 0xd0, 0x3a, 0xda, 0x3e, 0x2c, 0x3c, 0xd6, 0xbe,
  0x5e, 0x89, 0x9b, 0x3e, 0xa0, 0xb8, 0xf7, 0xbd, 0xed, 0x4c, 0x9a, 0xbe,
  0x7b, 0x24, 0x04, 0x3e, 0xd7, 0xca, 0x0e, 0xbd, 0x7c, 0xed, 0x69, 0x3d,
  0x9e, 0x50, 0xa5, 0x3d, 0x39, 0x15, 0xf0, 0x3d, 0xe7, 0xf1, 0x97, 0xbe,
  0x3d, 0x5d, 0x19, 0x3e, 0x26, 0xa4, 0x17, 0xbe, 0x11, 0x5b, 0x87, 0x3e,
  0x2f, 0x36, 0x09, 0xbc, 0x62, 0x94, 0x35, 0x3c, 0xdb, 0xe0, 0xb4, 0xbd,
  0xc1, 0x1e, 0xe4, 0x3d, 0xa4, 0x7e, 0x99, 0x3d, 0x4c, 0xb7, 0x10, 0x3e,
  0x07, 0xaf, 0x92, 0xbc, 0xdc, 0x70, 0x52, 0x3e, 0x6c, 0xd1, 0x05, 0x3e,
  0x6f, 0x55, 0xd0, 0xbe, 0x22, 0xa9, 0xfa, 0xbd, 0x85, 0x19, 0x2a, 0x3e,
  0x46, 0x62, 0x8a, 0x3d, 0x1e, 0x44, 0x91, 0x3d, 0x67, 0x9b, 0xd8, 0xbd,
  0x62, 0xb7, 0x9e, 0xbd, 0x4e, 0xd4, 0x10, 0xbd, 0x50, 0x6b, 0x04, 0xbd,
  0x1f, 0x16, 0xf8, 0xbd, 0x65, 0x59, 0xcf, 0x3b, 0x5a, 0xdc, 0x1b, 0x3c,
  0xe8, 0x5d, 0xb7, 0xbc, 0x2b, 0x1f, 0x81, 0x3c, 0x87, 0x7e, 0x8f, 0xbd,
  0xb9, 0xf4, 0x18, 0x3d, 0x16, 0x8a, 0x88, 0x3d, 0x93, 0x7d, 0xc9, 0xbd,
  0x34, 0x27, 0x3b, 0xbe, 0x7c, 0x42, 0xac, 0x3d, 0x14, 0xb8, 0x2c, 0x3d,
  0x1d, 0x75, 0xc9, 0xbd, 0xdd, 0x72, 0x2e, 0x3e, 0xd8, 0x56, 0xb5, 0xbd,
  0xe5, 0xda, 0xe2, 0x3d, 0x2a, 0xac, 0xb7, 0x3d, 0x61, 0xb3, 0x20, 0xbe,
  0x74, 0xd7, 0xd7, 0x3d, 0x40, 0x71, 0x26, 0xbe, 0xf8, 0x7e, 0xd9, 0xbd,
  0x19, 0x18, 0x1b, 0xbd, 0xbf, 0xe1, 0x02, 0xbe, 0xdd, 0xf1, 0x28, 0x3e,
  0x88, 0x38, 0x8c, 0x3d, 0xf5, 0x2b, 0x87, 0x3e, 0x47, 0x7e, 0xe2, 0xbf,
  0xa4, 0x5d, 0xe8, 0x3e, 0x47, 0x49, 0x89, 0xbd, 0x3a, 0xb2, 0x09, 0xbe,
  0xa6, 0x7e, 0x63, 0xbd, 0x5b, 0x5d, 0x21, 0x3f, 0x5c, 0x7f, 0x0e, 0x3b,
  0xaf, 0x1a, 0x06, 0xbe, 0x44, 0x34, 0x28, 0x3f, 0x94, 0x36, 0x0b, 0x3d,
  0x05, 0xff, 0x86, 0x3e, 0x9e, 0x31, 0x8b, 0x3d, 0xdd, 0xe7, 0x66, 0x3e,
  0x3c, 0x46, 0x44, 0xbd, 0x65, 0x17, 0x6a, 0x3f, 0xbc, 0xb2, 0x2f, 0x3e,
  0xc8, 0xfd, 0xb2, 0x3d, 0x67, 0x7c, 0x3c, 0xbf, 0xd3, 0x61, 0xba, 0x3e,
  0x6d, 0xf7, 0x46, 0x3e, 0xe7, 0x99, 0x16, 0xbf, 0x9e, 0xda, 0xda, 0x3e,
  0xe4, 0x5b, 0x51, 0xbd, 0x93, 0x5f, 0xdd, 0x3d, 0x8e, 0xb9, 0x3b, 0x3f,
  0xf6, 0xc0, 0x49, 0xbf, 0xd7, 0xc1, 0xd7, 0x3d, 0x6c, 0xb0, 0x8f, 0x3d,
  0x1b, 0xca, 0x0c, 0x3f, 0xde, 0x2a, 0x0f, 0x3d, 0xc0, 0xc6, 0x22, 0xbe,
  0xd5, 0x35, 0xc7, 0xbd, 0x5b, 0x03, 0x03, 0xbe, 0x4e, 0xea, 0xa2, 0x3d,
  0xae, 0xc3, 0xf2, 0xbd, 0xc0, 0x50, 0x71, 0xbc, 0xcc, 0x9c, 0xc5, 0x3c,
  0x48, 0xbe, 0xc1, 0xbd, 0x4b, 0xfb, 0x34, 0x3d, 0x63, 0xc0, 0x30, 0xbe,
  0x8e, 0xa5, 0x0a, 0xbe, 0x9e, 0x06, 0x24, 0xbe, 0x5a, 0x04, 0x5b, 0xbd,
  0xc6, 0xe3, 0x83, 0xbd, 0xb8, 0x5d, 0xcf, 0x3c, 0x74, 0xe4, 0x05, 0xbd,
  0x87, 0xba, 0x9f, 0x3d, 0x39, 0xe6, 0x25, 0x3e, 0x72, 0xe5, 0x81, 0x3d,
  0x42, 0xe0, 0x8a, 0xbd, 0x00, 0x81, 0x29, 0xbe, 0x50, 0x44, 0x73, 0x3d,
  0x41, 0xa7, 0xca, 0xbd, 0x9e, 0x3b, 0xb8, 0x3d, 0x72, 0x04, 0xf2, 0x3d,
  0x3d, 0x4f, 0x8b, 0x3d, 0x5c, 0x27, 0x1e, 0x3e, 0xc9, 0x74, 0x27, 0x3e,
  0xab, 0xe1, 0x1e, 0x3d, 0x46, 0xc0, 0x0b, 0xbe, 0xb7, 0x54, 0x18, 0x3e,
  0x2b, 0xc9, 0xab, 0xbd, 0xce, 0x83, 0xa7, 0xbd, 0x98, 0xb4, 0xf1, 0x3e,
  0x37, 0x9d, 0x68, 0xbf, 0x14, 0xed, 0x94, 0x3e, 0xc6, 0xf9, 0x95, 0xba,
  0x6d, 0x44, 0x18, 0xbe, 0x70, 0x8d, 0x17, 0x3e, 0xbe, 0x3a, 0x91, 0x3e,
  0x35, 0x74, 0xa0, 0x3e, 0x26, 0x78, 0x55, 0x3e, 0x13, 0x4a, 0x6e, 0x3e,
  0x9c, 0x8b, 0x7c, 0xbd, 0x7c, 0xba, 0x96, 0x3e, 0x70, 0x9c, 0x32, 0x3c,
  0x2b, 0x19, 0xfa, 0x3e, 0x67, 0x33, 0x21, 0xbd, 0x5d, 0xd2, 0x02, 0x3f,
  0xd0, 0x55, 0xc5, 0xbd, 0xcd, 0x95, 0x99, 0x3e, 0x5d, 0x34, 0xcb, 0xbe,
  0x8e, 0x4a, 0xd2, 0x3e, 0x08, 0x2f, 0x9f, 0x3e, 0xa1, 0x97, 0x8d, 0x3e,
  0xe0, 0xa0, 0x20, 0xbe, 0x2f, 0x41, 0x19, 0xbe, 0xe6, 0x8f, 0xa3, 0xbd,
  0xee, 0x4a, 0x62, 0x3e, 0x79, 0xa5, 0xd2, 0xbe, 0x68, 0x77, 0x4f, 0xbe,
  0x96, 0x8d, 0x2d, 0x3e, 0x2b, 0x09, 0xb9, 0x3e, 0x14, 0xc7, 0x15, 0xbe,
  0x3e, 0x33, 0x38, 0x3e, 0x7f, 0xd7, 0x29, 0x3c, 0x43, 0xda, 0x4a, 0xbf,
  0x3b, 0x85, 0x58, 0xbe, 0xd7, 0xc6, 0x22, 0x3e, 0x8a, 0xc0, 0xbf, 0x3d,
  0x43, 0x06, 0xbb, 0x3e, 0x56, 0x91, 0xa1, 0x3d, 0x04, 0xf0, 0x14, 0xbf,
  0x1d, 0x8c, 0x1b, 0x3f, 0x52, 0xc0, 0x5e, 0xbe, 0xb8, 0x50, 0x81, 0x3c,
  0x17, 0xd6, 0x0b, 0x3f, 0x7b, 0xfa, 0xca, 0xbd, 0x3d, 0xe2, 0x2c, 0xbe,
  0x75, 0x40, 0x20, 0x3e, 0x02, 0x32, 0xc7, 0xbd, 0x35, 0xb2, 0x9b, 0x3e,
  0x6b, 0x5c, 0x59, 0x3f, 0xf0, 0x80, 0x9b, 0xbe, 0x96, 0x2a, 0xed, 0xbd,
  0x28, 0x17, 0x42, 0x3e, 0x2c, 0xae, 0x37, 0x3e, 0xdf, 0x78, 0x9f, 0x3e,
  0xa4, 0x9f, 0x15, 0xbe, 0xe8, 0x40, 0x8a, 0x3e, 0x12, 0xbf, 0xf3, 0xbe,
  0xea, 0x40, 0xa9, 0x3e, 0x8d, 0xc0, 0xc5, 0x3e, 0xfb, 0xf5, 0xf5, 0xbd,
  0x3d, 0x14, 0xcb, 0x3d, 0x53, 0x58, 0x16, 0x3f, 0xa9, 0x76, 0x5e, 0x3d,
  0x62, 0x08, 0x8f, 0x3e, 0x42, 0x63, 0x4c, 0xbf, 0xba, 0xa2, 0x00, 0x3e,
  0xca, 0x80, 0x01, 0xbe, 0xd8, 0x9c, 0xca, 0xbd, 0xdb, 0xdb, 0x13, 0x3e,
  0x63, 0x66, 0x19, 0x3e, 0x51, 0x3b, 0x2e, 0x3e, 0x22, 0x55, 0xb0, 0x3e,
  0xfd, 0xb8, 0xad, 0x3e, 0xd4, 0xbf, 0x67, 0xbd, 0x42, 0xaa, 0xab, 0x3d,
  0x9e, 0xfb, 0x63, 0xbd, 0xbc, 0x7d, 0x80, 0x3e, 0xe4, 0xa0, 0x6b, 0xbd,
  0x1c, 0xb4, 0x8f, 0x3e, 0x89, 0x4d, 0x95, 0xbd, 0xa5, 0x05, 0x7c, 0x3e,
  0x05, 0x47, 0x0f, 0xbf, 0x72, 0xe6, 0x1b, 0x3e, 0xcc, 0x20, 0x86, 0x3e,
  0xea, 0xfb, 0x7f, 0x3d, 0xa9, 0x8b, 0xca, 0xbd, 0xeb, 0xe3, 0x0d, 0x3e,
  0x18, 0x3c, 0x2e, 0x3e, 0x4a, 0x9a, 0xad, 0x3e, 0x91, 0x56, 0x04, 0xbf,
  0xff, 0x5c, 0x97, 0xbe, 0xb3, 0xea, 0xd8, 0x3d, 0x82, 0xa2, 0xd0, 0x3e,
  0x5b, 0x65, 0x47, 0xbe, 0x63, 0xee, 0x01, 0xbe, 0x28, 0xe8, 0x6c, 0x3e,
  0x4c, 0xb9, 0x97, 0xbf, 0xdd, 0x4a, 0x2c, 0xbf, 0x7f, 0x68, 0x77, 0xbd,
  0x95, 0xb3, 0x1c, 0x3e, 0x52, 0xc8, 0x92, 0x3e, 0x13, 0xaa, 0x35, 0xbf,
  0xe5, 0x8b, 0xfd, 0x3b, 0x93, 0xae, 0xae, 0x3e, 0x31, 0x34, 0x88, 0xbb,
  0x9c, 0x35, 0x8f, 0x3d, 0x4c, 0x47, 0xc3, 0x3e, 0x44, 0x1d, 0x8d, 0xbd,
  0xc3, 0x14, 0xa0, 0x3e, 0x9f, 0x99, 0x03, 0xbd, 0x74, 0xce, 0x7d, 0xbf,
  0xf1, 0xc7, 0x31, 0xbe, 0xdf, 0x22, 0x1f, 0x3f, 0x8b, 0x51, 0x6a, 0xbe,
  0x22, 0x5e, 0x72, 0x3e, 0x24, 0xbe, 0xb4, 0xbe, 0xa5, 0xc3, 0xbc, 0x3e,
  0x95, 0x7e, 0xc0, 0x3e, 0xc9, 0x8c, 0x31, 0xbe, 0x9d, 0x4a, 0x76, 0x3e,
  0x60, 0xb5, 0xbd, 0x3e, 0xa5, 0x63, 0x85, 0xbe, 0xbf, 0x2f, 0xb4, 0xbd,
  0x0f, 0x0a, 0xde, 0xbd, 0x0f, 0x2d, 0x3f, 0xbc, 0x68, 0x7d, 0xab, 0x3e,
  0x18, 0x64, 0xf3, 0xbc, 0x2e, 0x04, 0x18, 0xbe, 0x0f, 0xd7, 0x10, 0x3e,
  0x25, 0x38, 0xb6, 0xbd, 0x98, 0x17, 0x9f, 0xbc, 0x68, 0x99, 0x88, 0x3c,
  0x20, 0x0f, 0x2e, 0xbc, 0x48, 0x48, 0x2a, 0xbe, 0x72, 0x1a, 0xa6, 0x3d,
  0x0a, 0x73, 0xa4, 0xbd, 0x5b, 0xc6, 0xbb, 0xbd, 0x48, 0xfe, 0x2c, 0x3d,
  0x2a, 0xef, 0xbc, 0xbd, 0xd5, 0x51, 0xa7, 0xbd, 0x52, 0xfa, 0x73, 0xbd,
  0x83, 0x02, 0x88, 0xbd, 0x6f, 0x33, 0x97, 0xbd, 0x00, 0x46, 0x43, 0xbd,
  0x90, 0x2b, 0x3c, 0x3d, 0xed, 0x7b, 0x12, 0xbe, 0x87, 0x22, 0xdb, 0xbd,
  0xc0, 0x0b, 0x29, 0x3b, 0x68, 0x64, 0xc9, 0x3c, 0x82, 0xf3, 0xc7, 0x3d,
  0xd7, 0x4f, 0xfe, 0xbd, 0x90, 0x1f, 0x67, 0x3d, 0x72, 0xc7, 0xcd, 0x3d,
  0x92, 0x06, 0xc9, 0x3d, 0xf5, 0x9a, 0x28, 0xbe, 0xcd, 0x27, 0x8a, 0xbd,
  0x16, 0x99, 0x1b, 0xbe, 0x2a, 0x1a, 0xe5, 0xbd, 0x24, 0xb5, 0xae, 0x3d,
  0xbc, 0xb5, 0x1b, 0xbd, 0x61, 0xe2, 0x92, 0x3d, 0xd5, 0x31, 0xbd, 0xbd,
  0xb8, 0x0f, 0xdc, 0x3c, 0x61, 0xfb, 0xda, 0xbd, 0x89, 0x80, 0x9a, 0x3d,
  0xa5, 0xc7, 0x88, 0xbd, 0x90, 0x0e, 0x76, 0xbd, 0x2d, 0xdd, 0x28, 0xbe,
  0xb1, 0x00, 0x5d, 0x3c, 0xd1, 0xdf, 0x2b, 0x3e, 0xc4, 0xea, 0xa3, 0x3d,
  0x97, 0x29, 0xc1, 0xbd, 0x26, 0x43, 0x6d, 0xbb, 0xb8, 0xc9, 0x9e, 0xbc,
  0x1a, 0x1a, 0x0c, 0xbe, 0x7c, 0x52, 0x01, 0x3e, 0x00, 0xc3, 0x3a, 0x3b,
  0x50, 0xfd, 0xc5, 0x3c, 0x1e, 0xc1, 0xaa, 0xbd, 0x46, 0x4d, 0xbd, 0xbd,
  0xfc, 0x76, 0x82, 0x3c, 0x46, 0x6e, 0x95, 0x3d, 0xbc, 0x68, 0x22, 0x3d,
  0xda, 0xc4, 0xc9, 0xbd, 0xed, 0x25, 0x22, 0x3e, 0x91, 0x47, 0x03, 0xbd,
  0x21, 0x8d, 0xf8, 0xbd, 0x51, 0x90, 0xc2, 0xbd, 0xab, 0x90, 0x32, 0x3e,
  0x00, 0xc0, 0x0e, 0x37, 0x05, 0x6c, 0x0c, 0x3e, 0x69, 0xd8, 0x55, 0xbe,
  0xfd, 0xdf, 0x7c, 0x3f, 0x91, 0xa2, 0xac, 0x3d, 0x63, 0xda, 0x0f, 0xbe,
  0xbe, 0xe5, 0xd3, 0x3d, 0xcf, 0xb0, 0xb0, 0x3e, 0xa1, 0xb7, 0x6f, 0x3e,
  0x02, 0x92, 0x05, 0x3f, 0x05, 0xe7, 0xb2, 0xbe, 0x44, 0x3d, 0xf8, 0xbb,
  0x56, 0xfa, 0xd7, 0x3d, 0x20, 0x30, 0x08, 0xbe, 0xeb, 0x15, 0x0c, 0x3e,
  0x9f, 0x01, 0x69, 0x3d, 0x52, 0x7b, 0xe2, 0x3d, 0x7c, 0x41, 0xa3, 0x3d,
  0xdf, 0x66, 0x63, 0x3e, 0x35, 0xef, 0x2a, 0xbf, 0xc3, 0xea, 0xde, 0x3e,
  0x25, 0x54, 0x55, 0xbe, 0x9d, 0x3a, 0x12, 0x3e, 0x9d, 0x0f, 0x81, 0xbc,
  0x2d, 0x9d, 0x87, 0xbe, 0xe7, 0x62, 0xbe, 0xbd, 0x58, 0xb6, 0x5d, 0x3d,
  0xd5, 0x0b, 0xbd, 0x3d, 0x00, 0xe7, 0x24, 0x3e, 0xfb, 0x7a, 0x8a, 0x3e,
  0xb6, 0x68, 0x88, 0x3e, 0x32, 0xa8, 0x0a, 0x3e, 0x0e, 0xa3, 0x02, 0xbe,
  0x8f, 0x58, 0xcc, 0x3d, 0xb5, 0xc1, 0xf3, 0xbe, 0xc8, 0x98, 0x12, 0x3e,
  0x13, 0x8d, 0xa7, 0x3e, 0xb9, 0x5c, 0x0f, 0xbe, 0x70, 0xd2, 0x81, 0x3d,
  0x5b, 0xb8, 0x19, 0x3e, 0xc7, 0x33, 0xc5, 0x3d, 0xd5, 0x37, 0x2d, 0x3f,
  0x5e, 0x9a, 0x80, 0xbe, 0x03, 0x3a, 0x90, 0x3e, 0x0e, 0xbe, 0xef, 0x3d,
  0xfb, 0xdb, 0xcb, 0xbe, 0xd2, 0xaf, 0xd2, 0x3d, 0x5e, 0xfe, 0xf6, 0xbe,
  0xb9, 0xe7, 0x39, 0x3e, 0xc2, 0xf0, 0x96, 0xbe, 0x9b, 0x66, 0xa3, 0x3e,
  0xbf, 0xdf, 0x0b, 0xbf, 0x47, 0x24, 0xc0, 0x3e, 0x0f, 0x68, 0xf3, 0xbe,
  0xe5, 0x38, 0x83, 0x3e, 0x50, 0x36, 0xb0, 0xbd, 0xd2, 0x48, 0xc7, 0xbe,
  0xac, 0x18, 0x8b, 0xbd, 0x8f, 0xb6, 0x04, 0x3f, 0x39, 0xd2, 0x7e, 0x3e,
  0x6f, 0xd0, 0xca, 0x3e, 0x71, 0x9e, 0x72, 0x3e, 0xe5, 0x07, 0x91, 0x3e,
  0x00, 0x30, 0xac, 0xbe, 0x7c, 0x43, 0x19, 0x3b, 0xc2, 0x6c, 0x9f, 0x3d,
  0x83, 0x02, 0xbf, 0xbe, 0xd9, 0x30, 0x82, 0x3e, 0x10, 0xf4, 0x11, 0x3e,
  0x90, 0x6b, 0x21, 0x3e, 0x87, 0xf4, 0x2d, 0xbe, 0x26, 0xa1, 0x71, 0xbd,
  0xd0, 0x91, 0xa4, 0x3e, 0x16, 0xe1, 0x4d, 0x3e, 0xba, 0xa1, 0x50, 0xbe,
  0x0b, 0x22, 0x19, 0xbc, 0x0b, 0x1f, 0x2e, 0x3e, 0xee, 0xdc, 0x82, 0xbe,
  0x60, 0x25, 0x29, 0xbe, 0x1d, 0xa9, 0x0f, 0xbe, 0x16, 0xab, 0x81, 0xbd,
  0x37, 0x32, 0xa0, 0xbe, 0x05, 0x1c, 0xb3, 0x3e, 0x96, 0x69, 0x05, 0xbf,
  0x91, 0xce, 0x1c, 0x3e, 0x79, 0xe6, 0x88, 0xbe, 0x5f, 0xd0, 0xf3, 0x3d,
  0x36, 0xc3, 0x59, 0xbd, 0x95, 0x6c, 0x1c, 0xbe, 0xe0, 0x3c, 0xad, 0x3b,
  0x76, 0x06, 0x49, 0x3e, 0xad, 0x4d, 0x3d, 0xbd, 0x98, 0x44, 0xd9, 0x3d,
  0x40, 0x4a, 0x99, 0x3e, 0x44, 0x3d, 0xe9, 0x3d, 0x6c, 0x58, 0x19, 0xbf,
  0x42, 0x18, 0xea, 0x3e, 0x0c, 0xdb, 0xc5, 0x3d, 0x99, 0xd4, 0xad, 0x3e,
  0x90, 0xca, 0x79, 0xbf, 0x06, 0x64, 0x9a, 0x3e, 0x1b, 0xea, 0x21, 0x3e,
  0x12, 0x51, 0xf8, 0x3d, 0x1f, 0x21, 0x13, 0x3d, 0xce, 0x75, 0xa1, 0x3e,
  0xe3, 0x80, 0xa3, 0x3e, 0xc0, 0x20, 0x80, 0x3e, 0x0b, 0xa3, 0xd8, 0x3e,
  0x15, 0x52, 0x1a, 0x3e, 0x77, 0x39, 0x15, 0x3d, 0x19, 0x83, 0x1e, 0x3e,
  0xc3, 0xb4, 0x8d, 0x3e, 0x44, 0xc2, 0xa3, 0x3b, 0x5e, 0x14, 0x80, 0x3e,
  0xe5, 0xe4, 0x42, 0xbe, 0xff, 0x63, 0x3c, 0xbd, 0x27, 0x2c, 0x4d, 0xbe,
  0x30, 0xaf, 0x8a, 0x3e, 0xa5, 0xb3, 0x28, 0x3e, 0x78, 0xc9, 0xa7, 0x3e,
  0xce, 0xc2, 0x0c, 0xbc, 0xbe, 0x8c, 0xca, 0x3d, 0xaa, 0xb5, 0x02, 0xbb,
  0x81, 0x95, 0xb7, 0x3e, 0x46, 0xc8, 0xba, 0xbe, 0xe9, 0x23, 0x15, 0xbe,
  0x2f, 0x7f, 0x4c, 0x3e, 0xc4, 0xbf, 0x8c, 0x3d, 0x6a, 0xfb, 0xae, 0xbe,
  0xae, 0x33, 0x37, 0x3e, 0x33, 0x0b, 0x90, 0xbc, 0x23, 0x74, 0x85, 0x3f,
  0x85, 0x9f, 0x02, 0xbf, 0x3e, 0x07, 0x1f, 0x3d, 0x4a, 0x8c, 0xeb, 0x3d,
  0xad, 0x3e, 0x5b, 0xbe, 0x4b, 0xca, 0x59, 0x3c, 0x27, 0xe3, 0x22, 0xbe,
  0x19, 0xd8, 0xde, 0x3d, 0x14, 0x03, 0x1b, 0xbf, 0x4c, 0x75, 0x12, 0xbe,
  0x60, 0x68, 0x80, 0x3c, 0xdd, 0xee, 0x8c, 0xbd, 0xf4, 0xc3, 0xa7, 0xbe,
  0x9b, 0x94, 0x1a, 0xbd, 0xfa, 0x66, 0x3d, 0xbf, 0xd9, 0x6c, 0x02, 0x3e,
  0xb8, 0x22, 0xe3, 0x3e, 0xb2, 0xf7, 0xe0, 0x3e, 0xd2, 0xdb, 0xce, 0xbe,
  0x06, 0x96, 0xc0, 0xbe, 0x65, 0x2e, 0xea, 0x3c, 0x73, 0x2d, 0x86, 0x3e,
  0xf5, 0x94, 0x0a, 0x3e, 0x29, 0x3e, 0xeb, 0x3e, 0x9e, 0xe8, 0x94, 0xbd,
  0x33, 0xa0, 0x6d, 0x3e, 0xbf, 0xde, 0xa5, 0x3e, 0x6e, 0x85, 0xf9, 0xbd,
  0x11, 0x4f, 0xc5, 0xbe, 0x39, 0xf0, 0xdd, 0x3e, 0xe0, 0xbe, 0xa7, 0x3e,
  0xc0, 0xe3, 0x85, 0xbe, 0x93, 0x7d, 0x36, 0x3f, 0x93, 0x0f, 0x58, 0x3e,
  0x32, 0x51, 0x11, 0xbe, 0x48, 0x08, 0x37, 0x3d, 0xeb, 0x75, 0x91, 0xbd,
  0x82, 0x2f, 0xdc, 0x3c, 0x8a, 0x91, 0xec, 0x3e, 0xda, 0x5d, 0x01, 0xbf,
  0xcd, 0x4f, 0xb1, 0x3e, 0x21, 0x4c, 0x2f, 0x3e, 0xbc, 0xf0, 0x7e, 0xbe,
  0x4a, 0x27, 0xe3, 0xbd, 0xba, 0xcd, 0x85, 0xbe, 0xa8, 0x73, 0x1d, 0x3d,
  0x3a, 0x70, 0x0d, 0xbe, 0x8d, 0x4e, 0x7f, 0x3e, 0xc0, 0x66, 0xba, 0xbe,
  0x22, 0x48, 0x66, 0x3e, 0x57, 0xe9, 0xc0, 0xbe, 0xab, 0x4f, 0x60, 0x3e,
  0xf1, 0xf2, 0x86, 0xbd, 0xf0, 0x01, 0xa9, 0xbd, 0x1a, 0x28, 0xbe, 0xbd,
  0xed, 0xe1, 0x95, 0x3e, 0xfd, 0x09, 0xa7, 0x3e, 0x3b, 0x4b, 0x71, 0x3e,
  0xf2, 0x04, 0xaf, 0x3e, 0xff, 0xaf, 0x15, 0x3e, 0x4d, 0xe7, 0x2f, 0xbf,
  0xd1, 0x09, 0x6f, 0x3e, 0xc8, 0xfc, 0xfe, 0x3d, 0x30, 0xce, 0xd0, 0xbd,
  0xb7, 0xc5, 0x19, 0x3f, 0xae, 0x2e, 0x84, 0x3d, 0xfc, 0xf1, 0x03, 0xbd,
  0x08, 0xb4, 0x8a, 0xbc, 0x4a, 0x09, 0x00, 0xbe, 0x0e, 0xb5, 0x93, 0x3e,
  0x4c, 0xcd, 0xed, 0x3e, 0x32, 0x56, 0xf9, 0xbd, 0x12, 0xbc, 0x53, 0x3e,
  0xee, 0xcd, 0x18, 0xbe, 0x4a, 0x36, 0x63, 0xbe, 0x65, 0x04, 0x16, 0x3e,
  0xc5, 0x46, 0x98, 0xbe, 0x2b, 0x34, 0xe4, 0xbd, 0x99, 0x0b, 0x87, 0xbd,
  0x37, 0x6f, 0xaf, 0x3e, 0xb9, 0xf9, 0xda, 0xbe, 0xfc, 0xf2, 0xd4, 0x3e,
  0xe5, 0xb4, 0x87, 0xbe, 0x7c, 0x6a, 0x08, 0xbd, 0x4c, 0x35, 0x4b, 0x3d,
  0xd7, 0xc2, 0x09, 0xbd, 0xe2, 0x31, 0x59, 0xbd, 0xd6, 0x26, 0x9b, 0x3e,
  0x64, 0x90, 0x3d, 0x3d, 0x0e, 0x10, 0xd6, 0x3e, 0x44, 0x7f, 0xbd, 0x3e,
  0xc4, 0x2d, 0x52, 0x3e, 0xe8, 0x4e, 0xbf, 0xbe, 0x2f, 0xc9, 0xc0, 0x3e,
  0x22, 0xa8, 0x20, 0xbc, 0xdb, 0x7b, 0x0f, 0x3e, 0x8f, 0xd3, 0xd1, 0xbf,
  0x15, 0x7f, 0x1c, 0xbf, 0x88, 0xa0, 0x0c, 0xbe, 0x7a, 0x83, 0xf3, 0x3d,
  0xf9, 0x94, 0x98, 0x3e, 0x28, 0xe6, 0x26, 0xbf, 0x79, 0x02, 0x82, 0x3e,
  0x7a, 0x18, 0x88, 0x3e, 0x9f, 0x34, 0x64, 0x3e, 0x72, 0x75, 0xd1, 0x3d,
  0xd8, 0x8d, 0xe3, 0x3e, 0x34, 0x0e, 0x6d, 0xbd, 0x36, 0x62, 0x5f, 0x3e,
  0xcb, 0x3d, 0x13, 0x3e, 0x02, 0x93, 0x50, 0xbf, 0x1f, 0x9e, 0xa3, 0xbe,
  0x42, 0xd7, 0xac, 0x3e, 0xe9, 0xb6, 0x81, 0xbe, 0x6b, 0xd1, 0x9c, 0x3c,
  0x1b, 0xa0, 0xf9, 0xbc, 0x2d, 0x50, 0x26, 0x3e, 0x28, 0x99, 0x3a, 0x3e,
  0x94, 0x8a, 0xc2, 0xbd, 0x39, 0x75, 0x0a, 0x3f, 0x5a, 0x1a, 0xdc, 0x3e,
  0xca, 0xa8, 0xad, 0xbe, 0xb3, 0x3e, 0xb9, 0xbd, 0xeb, 0x1b, 0xd7, 0x3d,
  0xdc, 0xb1, 0xdc, 0x3d, 0x76, 0x8d, 0x1d, 0x3e, 0xcf, 0xa7, 0x76, 0x3e,
  0xad, 0x86, 0x02, 0xbe, 0x8c, 0x66, 0x43, 0x3f, 0xa8, 0x99, 0x20, 0x3d,
  0x67, 0xe2, 0x20, 0xbd, 0x20, 0xbf, 0x45, 0x3c, 0x54, 0x18, 0x8d, 0xbe,
  0x18, 0x68, 0x33, 0x3e, 0xaf, 0xaa, 0x43, 0xbf, 0x00, 0x3c, 0x84, 0xbd,
  0xd2, 0x92, 0xa0, 0xbe, 0x60, 0x74, 0xc8, 0x3c, 0x72, 0xbb, 0x71, 0xbe,
  0xe8, 0xed, 0x2b, 0xbe, 0x60, 0xad, 0xda, 0xbe, 0x2b, 0xb4, 0x22, 0x3e,
  0x5d, 0xbc, 0x47, 0xbf, 0xf5, 0xbb, 0x9d, 0x3e, 0xbc, 0x34, 0x9f, 0xbe,
  0xfb, 0xbc, 0xdd, 0x3e, 0x11, 0xb5, 0x72, 0xbe, 0x85, 0x32, 0xeb, 0x3d,
  0xf7, 0x43, 0xde, 0xbd, 0x6f, 0x6d, 0xb6, 0x3e, 0x5a, 0x19, 0xbd, 0x3d,
  0x6a, 0x23, 0x8a, 0x3e, 0x92, 0x81, 0x55, 0xbe, 0xdc, 0xdf, 0xad, 0x3e,
  0x36, 0xfd, 0x3f, 0x3e, 0xf1, 0x42, 0x31, 0xbe, 0x2d, 0x6f, 0xa1, 0xbe,
  0x8c, 0x6e, 0xa7, 0x3e, 0x62, 0xfc, 0xff, 0xff, 0x00, 0x00, 0x00, 0x01,
  0x8c, 0x00, 0x00, 0x00, 0x04, 0x00, 0x00, 0x00, 0x08, 0x00, 0x00, 0x00,
  0x8c, 0x00, 0x00, 0x00, 0x75, 0x00, 0x00, 0x00, 0x76, 0x6c, 0x70, 0x5f,
  0x68, 0x61, 0x63, 0x6b, 0x61, 0x74, 0x68, 0x6f, 0x6e, 0x2e, 0x62, 0x61,
  0x73, 0x65, 0x6c, 0x69, 0x6e, 0x65, 0x5f, 0x6d, 0x6f, 0x64, 0x65, 0x6c,
  0x2e, 0x42, 0x61, 0x73, 0x65, 0x6c, 0x69, 0x6e, 0x65, 0x4d, 0x4c, 0x50,
  0x2f, 0x74, 0x6f, 0x72, 0x63, 0x68, 0x2e, 0x6e, 0x6e, 0x2e, 0x6d, 0x6f,
  0x64, 0x75, 0x6c, 0x65, 0x73, 0x2e, 0x63, 0x6f, 0x6e, 0x74, 0x61, 0x69,
  0x6e, 0x65, 0x72, 0x2e, 0x53, 0x65, 0x71, 0x75, 0x65, 0x6e, 0x74, 0x69,
  0x61, 0x6c, 0x5f, 0x6e, 0x65, 0x74, 0x2f, 0x74, 0x6f, 0x72, 0x63, 0x68,
  0x2e, 0x6e, 0x6e, 0x2e, 0x6d, 0x6f, 0x64, 0x75, 0x6c, 0x65, 0x73, 0x2e,
  0x6c, 0x69, 0x6e, 0x65, 0x61, 0x72, 0x2e, 0x4c, 0x69, 0x6e, 0x65, 0x61,
  0x72, 0x5f, 0x34, 0x3b, 0x31, 0x00, 0x00, 0x00, 0x02, 0x00, 0x00, 0x00,
  0x02, 0x00, 0x00, 0x00, 0x20, 0x00, 0x00, 0x00, 0xa8, 0xfc, 0xff, 0xff,
  0x22, 0xfd, 0xff, 0xff, 0x04, 0x00, 0x00, 0x00, 0x00, 0x01, 0x00, 0x00,
  0xd9, 0x77, 0x31, 0x3e, 0x79, 0x8b, 0x9e, 0x3e, 0x28, 0xbc, 0xe1, 0x3d,
  0xb8, 0x21, 0xbc, 0x3e, 0x8e, 0x72, 0xae, 0x3f, 0xab, 0x7c, 0xbb, 0xbe,
  0x47, 0xb1, 0xf1, 0x3e, 0x74, 0x1d, 0xd6, 0xbe, 0x72, 0xcd, 0xde, 0x3e,
  0xcc, 0xe5, 0x8c, 0xbe, 0xef, 0x88, 0xc5, 0xbe, 0x47, 0x10, 0xad, 0x3e,
  0xf9, 0xec, 0x95, 0xbe, 0xda, 0xcd, 0xd9, 0xbe, 0x63, 0x35, 0x6a, 0xbd,
  0xa6, 0x42, 0x9a, 0x3e, 0xa1, 0xeb, 0x1a, 0x3e, 0xd2, 0x06, 0xec, 0xbd,
  0xd8, 0x77, 0x2a, 0x3f, 0xab, 0x99, 0x44, 0xbd, 0x76, 0xd7, 0xab, 0x3e,
  0x70, 0x8c, 0x0a, 0x3d, 0x4b, 0xd4, 0x02, 0xbe, 0x8e, 0xda, 0x02, 0xbf,
  0x53, 0x9b, 0x9a, 0xbe, 0xcb, 0xc0, 0x62, 0xbe, 0xfb, 0x14, 0x89, 0xbe,
  0x6a, 0xbd, 0x78, 0x3e, 0x81, 0xc7, 0xcc, 0xbe, 0x17, 0x99, 0xc3, 0xbe,
  0xcf, 0x55, 0xb3, 0x3e, 0x6a, 0x3a, 0x81, 0x3e, 0xc3, 0xd9, 0xc7, 0xbd,
  0x70, 0x47, 0x7c, 0x3e, 0x71, 0xd9, 0x1f, 0xbb, 0xa4, 0x56, 0x7f, 0x3e,
  0x12, 0x7f, 0x6e, 0xbd, 0x26, 0xcb, 0xbe, 0xbe, 0xda, 0xcd, 0xa4, 0xbe,
  0x1a, 0xc2, 0xa5, 0xbe, 0xa7, 0x99, 0xeb, 0xbe, 0x98, 0x26, 0x7f, 0xbe,
  0xbf, 0xdd, 0xc0, 0x3e, 0xdb, 0xa3, 0xb6, 0x3e, 0xab, 0x9a, 0xef, 0xbd,
  0xcf, 0x8e, 0x86, 0x3e, 0x6f, 0x2b, 0x55, 0xbc, 0x03, 0x8e, 0xa5, 0xbf,
  0x1e, 0x23, 0x67, 0x3d, 0xd5, 0x83, 0xcb, 0xbe, 0xbe, 0xd8, 0xe0, 0x3d,
  0x66, 0x7a, 0xba, 0xbe, 0x2e, 0x3d, 0xb9, 0xbe, 0xd0, 0xf2, 0x85, 0xbd,
  0xcc, 0x71, 0x1a, 0x3e, 0x11, 0x2c, 0xd9, 0x3e, 0x79, 0x0b, 0xcd, 0x3e,
  0xf3, 0xc5, 0xe5, 0x3e, 0x69, 0x82, 0xea, 0xbe, 0x49, 0x17, 0x9e, 0x3e,
  0xd3, 0x59, 0xd0, 0x3e, 0xe6, 0x6e, 0xcd, 0x3e, 0x78, 0xe9, 0xec, 0xbe,
  0x84, 0x3c, 0xb6, 0x3e, 0x12, 0xfe, 0xff, 0xff, 0x00, 0x00, 0x00, 0x01,
  0x8c, 0x00, 0x00, 0x00, 0x03, 0x00, 0x00, 0x00, 0x08, 0x00, 0x00, 0x00,
  0x88, 0x00, 0x00, 0x00, 0x74, 0x00, 0x00, 0x00, 0x76, 0x6c, 0x70, 0x5f,
  0x68, 0x61, 0x63, 0x6b, 0x61, 0x74, 0x68, 0x6f, 0x6e, 0x2e, 0x62, 0x61,
  0x73, 0x65, 0x6c, 0x69, 0x6e, 0x65, 0x5f, 0x6d, 0x6f, 0x64, 0x65, 0x6c,
  0x2e, 0x42, 0x61, 0x73, 0x65, 0x6c, 0x69, 0x6e, 0x65, 0x4d, 0x4c, 0x50,
  0x2f, 0x74, 0x6f, 0x72, 0x63, 0x68, 0x2e, 0x6e, 0x6e, 0x2e, 0x6d, 0x6f,
  0x64, 0x75, 0x6c, 0x65, 0x73, 0x2e, 0x63, 0x6f, 0x6e, 0x74, 0x61, 0x69,
  0x6e, 0x65, 0x72, 0x2e, 0x53, 0x65, 0x71, 0x75, 0x65, 0x6e, 0x74, 0x69,
  0x61, 0x6c, 0x5f, 0x6e, 0x65, 0x74, 0x2f, 0x74, 0x6f, 0x72, 0x63, 0x68,
  0x2e, 0x6e, 0x6e, 0x2e, 0x6d, 0x6f, 0x64, 0x75, 0x6c, 0x65, 0x73, 0x2e,
  0x6c, 0x69, 0x6e, 0x65, 0x61, 0x72, 0x2e, 0x4c, 0x69, 0x6e, 0x65, 0x61,
  0x72, 0x5f, 0x32, 0x3b, 0x00, 0x00, 0x00, 0x00, 0x01, 0x00, 0x00, 0x00,
  0x20, 0x00, 0x00, 0x00, 0x54, 0xfe, 0xff, 0xff, 0xce, 0xfe, 0xff, 0xff,
  0x04, 0x00, 0x00, 0x00, 0x80, 0x00, 0x00, 0x00, 0x50, 0xc7, 0x66, 0x3c,
  0xcb, 0x14, 0xff, 0x3d, 0x0d, 0xf4, 0xdd, 0xbd, 0x72, 0x4e, 0x80, 0x3e,
  0x3f, 0xa1, 0xca, 0xbe, 0x98, 0x0c, 0x11, 0xbb, 0xa3, 0xf3, 0x33, 0x3e,
  0xb5, 0x34, 0x31, 0x3d, 0xc9, 0xd1, 0x68, 0x3e, 0x9d, 0xad, 0x34, 0x3e,
  0x81, 0x3a, 0x85, 0x3e, 0xb1, 0x08, 0x3e, 0x3e, 0xe3, 0xcd, 0xbf, 0xbc,
  0x62, 0x07, 0x63, 0x3e, 0xb4, 0x1b, 0x82, 0x3c, 0xbf, 0x5d, 0x2a, 0xbe,
  0xff, 0x75, 0xfa, 0xbd, 0xb9, 0x28, 0x1e, 0x3d, 0xdb, 0x76, 0x47, 0x3d,
  0xff, 0xc8, 0x38, 0x3e, 0x81, 0x64, 0x8d, 0x3e, 0x4e, 0xca, 0x1e, 0xbe,
  0xd9, 0xb7, 0x03, 0xbe, 0x55, 0x65, 0x15, 0x3d, 0x06, 0x29, 0xa0, 0x3e,
  0x72, 0xd8, 0x83, 0x3e, 0x7d, 0xeb, 0x18, 0x3d, 0x80, 0x41, 0xc1, 0x3e,
  0x8a, 0x84, 0xd5, 0x3d, 0x38, 0x17, 0x13, 0xbc, 0x6b, 0x0a, 0x6f, 0x3e,
  0xfc, 0xdc, 0x83, 0x3e, 0x3e, 0xff, 0xff, 0xff, 0x00, 0x00, 0x00, 0x01,
  0x8c, 0x00, 0x00, 0x00, 0x02, 0x00, 0x00, 0x00, 0x08, 0x00, 0x00, 0x00,
  0x8c, 0x00, 0x00, 0x00, 0x74, 0x00, 0x00, 0x00, 0x76, 0x6c, 0x70, 0x5f,
  0x68, 0x61, 0x63, 0x6b, 0x61, 0x74, 0x68, 0x6f, 0x6e, 0x2e, 0x62, 0x61,
  0x73, 0x65, 0x6c, 0x69, 0x6e, 0x65, 0x5f, 0x6d, 0x6f, 0x64, 0x65, 0x6c,
  0x2e, 0x42, 0x61, 0x73, 0x65, 0x6c, 0x69, 0x6e, 0x65, 0x4d, 0x4c, 0x50,
  0x2f, 0x74, 0x6f, 0x72, 0x63, 0x68, 0x2e, 0x6e, 0x6e, 0x2e, 0x6d, 0x6f,
  0x64, 0x75, 0x6c, 0x65, 0x73, 0x2e, 0x63, 0x6f, 0x6e, 0x74, 0x61, 0x69,
  0x6e, 0x65, 0x72, 0x2e, 0x53, 0x65, 0x71, 0x75, 0x65, 0x6e, 0x74, 0x69,
  0x61, 0x6c, 0x5f, 0x6e, 0x65, 0x74, 0x2f, 0x74, 0x6f, 0x72, 0x63, 0x68,
  0x2e, 0x6e, 0x6e, 0x2e, 0x6d, 0x6f, 0x64, 0x75, 0x6c, 0x65, 0x73, 0x2e,
  0x6c, 0x69, 0x6e, 0x65, 0x61, 0x72, 0x2e, 0x4c, 0x69, 0x6e, 0x65, 0x61,
  0x72, 0x5f, 0x34, 0x3b, 0x00, 0x00, 0x00, 0x00, 0x01, 0x00, 0x00, 0x00,
  0x02, 0x00, 0x00, 0x00, 0x04, 0x00, 0x06, 0x00, 0x04, 0x00, 0x00, 0x00,
  0x00, 0x00, 0x06, 0x00, 0x08, 0x00, 0x04, 0x00, 0x06, 0x00, 0x00, 0x00,
  0x04, 0x00, 0x00, 0x00, 0x08, 0x00, 0x00, 0x00, 0x34, 0xf0, 0xeb, 0x3c,
  0x13, 0x3e, 0x40, 0x3c, 0x00, 0x00, 0x16, 0x00, 0x18, 0x00, 0x08, 0x00,
  0x00, 0x00, 0x0c, 0x00, 0x10, 0x00, 0x14, 0x00, 0x00, 0x00, 0x00, 0x00,
  0x00, 0x00, 0x07, 0x00, 0x16, 0x00, 0x00, 0x00, 0x00, 0x00, 0x00, 0x01,
  0x2c, 0x00, 0x00, 0x00, 0x01, 0x00, 0x00, 0x00, 0x08, 0x00, 0x00, 0x00,
  0x2c, 0x00, 0x00, 0x00, 0x16, 0x00, 0x00, 0x00, 0x73, 0x65, 0x72, 0x76,
  0x69, 0x6e, 0x67, 0x5f, 0x64, 0x65, 0x66, 0x61, 0x75, 0x6c, 0x74, 0x5f,
  0x61, 0x72, 0x67, 0x73, 0x5f, 0x30, 0x00, 0x00, 0x02, 0x00, 0x00, 0x00,
  0x01, 0x00, 0x00, 0x00, 0x09, 0x00, 0x00, 0x00, 0xfc, 0xff, 0xff, 0xff,
  0x04, 0x00, 0x04, 0x00, 0x04, 0x00, 0x00, 0x00,
};
const unsigned int g_vlp_model_data_len = 8708u;
